/**
  ******************************************************************************
  * @file    emgclassifier_data_params.c
  * @author  AST Embedded Analytics Research Platform
  * @date    2025-03-03T17:56:44-0800
  * @brief   AI Tool Automatic Code Generator for Embedded NN computing
  ******************************************************************************
  * Copyright (c) 2025 STMicroelectronics.
  * All rights reserved.
  *
  * This software is licensed under terms that can be found in the LICENSE file
  * in the root directory of this software component.
  * If no LICENSE file comes with this software, it is provided AS-IS.
  ******************************************************************************
  */

#include "emgclassifier_data_params.h"


/**  Activations Section  ****************************************************/
ai_handle g_emgclassifier_activations_table[1 + 2] = {
  AI_HANDLE_PTR(AI_MAGIC_MARKER),
  AI_HANDLE_PTR(NULL),
  AI_HANDLE_PTR(AI_MAGIC_MARKER),
};




/**  Weights Section  ********************************************************/
AI_ALIGNED(32)
const ai_u64 s_emgclassifier_weights_array_u64[3347] = {
  0x3f1357663f11bd01U, 0x3eaafc64bf2c1fc0U, 0xbe24bd1dbf06112dU, 0xbe0a2203bc1f8fd9U,
  0xbfcb407bbfc0ba72U, 0xbd2cdcb7beb489e0U, 0x3ec10119bcaab790U, 0xbeb07cf03dbed296U,
  0xbee4cb9dbf1aca33U, 0x3b066f83bd05c35bU, 0x3ea24d773fa0f357U, 0x3e9006cc3d97dbe1U,
  0xbd1189cabd3a42fdU, 0xbe8e0e12be0ec28dU, 0xbf654a47beb7e1e7U, 0x3dc7ed04be914abdU,
  0x3f0991d5bc983333U, 0xbd79ed9dbe15d318U, 0x3cd608513c7259a2U, 0xbfc946bdbc85f7b2U,
  0xbf064f3fbfb0fd03U, 0xbf117fe5be5efeacU, 0x3c85b538bdf47e16U, 0xbdae962dbdb67c1eU,
  0x3ff7468cbe88c724U, 0x3e3bf8263e32814bU, 0x3cb7114f3e5d6720U, 0x3f60edd23ef1eca6U,
  0xbde15b773dc2a7dfU, 0xbf0ff92cbc4c64ccU, 0x3e32dfb53e7f813aU, 0xbcbfe55d3e8a72fbU,
  0xbf8177a73ce42ed4U, 0xbe9507bebf487636U, 0xbe6d4b063de99224U, 0x3ce8d60abcb38612U,
  0x3f78281d3f5ae150U, 0x3fb61b8e3f49729fU, 0xbb9fec233df00e9eU, 0xbf26f1f0bf1b131cU,
  0xbcb1d8183c75c3b2U, 0xbc8425293d5be84aU, 0x3e130bcb3a14d0e3U, 0xbf599055bed85762U,
  0x3d15b34dbe067678U, 0x3dc59c83bd1dc3f0U, 0xbfba34693e171138U, 0xbfa9e0f3bf006d47U,
  0x3d2500693e6f5543U, 0x3e853fcd3c68d895U, 0x3e807a7b3d9abb37U, 0x3ed08ab63df40765U,
  0xbcf97159be2571eaU, 0x3e622ec53e351556U, 0x3cccd4263e6713d3U, 0xbec0bb9cbbc3f9a0U,
  0x3ee468b63ebd16f5U, 0x3d05eb52beb8375bU, 0xc02732e63da4b9a3U, 0x3f4eeb5ac0343fd6U,
  0x3f67d60ebff69068U, 0x3cd4bb9dbdd11567U, 0x3f5cf2f2bfd6509cU, 0xbf833df63f41f5bcU,
  0xbe47b3c93da8a134U, 0x3e52d3cd3e110c06U, 0xbedfc4653e85dcf8U, 0xbd6180a93e456b99U,
  0x3f0aa9643db05c57U, 0x3ee36e213f101c18U, 0x3d04653d3d2833bbU, 0x3f06c4943c69b304U,
  0xbd0cf1723ec66242U, 0xbd9529a73f4cc079U, 0x3b046753bcb50dadU, 0xbc8e2be0bfd987a2U,
  0xbf20dea83e82f73cU, 0x3e812957bd415be2U, 0xbfcb27f0bfc1d409U, 0xbf2c290fbe68c564U,
  0xbca8fe67be393ec6U, 0xbe3ac95fbdf56953U, 0x3f1b05f63f0a4448U, 0x3e3785983f96fe8dU,
  0x3ee49f0bbe3d1315U, 0x3e007e233eb77c62U, 0x3f0bea2d3eb7041aU, 0x3c9f31333c8a49c2U,
  0xbf8c0ca13caaddd1U, 0xbf4edeb4bf8d82abU, 0xbd4a4ec3bcf50e39U, 0x3d7a1899be8071eaU,
  0x3ba589b6bf56387dU, 0xbe715be3bf2edee7U, 0x3f24ecbfbd91042aU, 0x3d647de23e9fc84fU,
  0x3e036e203ddd3923U, 0x3ed717f13d79fe7aU, 0xbf4895fc3e4faa9aU, 0xbf69a544bd39f5e4U,
  0x3d730087be2c92d0U, 0xbe8456fc3f224897U, 0x3ea1135bbe5652deU, 0xbdff27e1b951302cU,
  0xbf9bb3aebf7ad04eU, 0xbebb2265be890a99U, 0xbc89b0acbe6cbf2eU, 0xbf27426a3ca028f9U,
  0x3eed2c163e69a315U, 0x3d4121cd3fa6a0e2U, 0xbfbeee40bd55f05bU, 0x3ea3247abfdb833eU,
  0x3eee47a1bfd1a93aU, 0xbd47ac8cbd83903bU, 0x3ed7d7f73def8fdaU, 0xbee8b3c33e7f602bU,
  0x3f0dc4c33e2fc937U, 0xbea05657beb2bb84U, 0xbe10c2c2be14341eU, 0xbe0468cebd7dddc1U,
  0x3f9825333d297070U, 0xbed0e929bdc2c443U, 0x3e5ec2413f16db80U, 0xbd7f524b3d7496b2U,
  0xbe6ea36d3d7e10ffU, 0xbe7adafb3eb584f8U, 0xbb800e643e4b0417U, 0xbc94cba13e08e397U,
  0x3f57249cbe5d1fffU, 0xbd148f1ebb92f801U, 0xbd9c4c333e929a88U, 0x3ec8d79ebe98a06cU,
  0xbc24664dbecd4445U, 0xbf2125173a57f1fbU, 0x3d6da84b3cbc4b40U, 0x3d41e10fbe96a2caU,
  0x3eef8d113de77199U, 0xbecd49c53e91fa21U, 0xbea4a339bf14fe3aU, 0xbcad699f3d6f373dU,
  0x3dd45e504023a6e0U, 0x3f1432563ddfe3bcU, 0x3c70852fbd4049c8U, 0x3e2e20273e58d74aU,
  0xbf0099b4bed3603eU, 0xbcdb4237bf14bed5U, 0x3f87193c3c74d971U, 0x3edee70d3f22ac6cU,
  0xbb0480e2be80c018U, 0x3dc140bd3c93b630U, 0xbd78f806be93db49U, 0x3e8c1871bdc2fd6dU,
  0xbd845b703d8101f3U, 0xbf062bf53d824cc9U, 0x3eeae211be6dc09dU, 0x3d4503cdbe25b395U,
  0xbfbee7ecbfe5c4bdU, 0xbfe3abdbbe7f7ab9U, 0xbd2ac359be8a41feU, 0x3f968d8abb9f52a4U,
  0x3db2d44ebdb33ca8U, 0x3e6030fe3f42cad5U, 0xbe75c1023d7f93ffU, 0x3ef8af62bdfbde44U,
  0x3f0250ae3f15af92U, 0xbd146c07bc91d670U, 0x3e224e2ec01f3062U, 0xbf7dd6c03e855702U,
  0xbdb4cc3b3d606d5bU, 0x3eb499783e9efbedU, 0x3ca4b5363dce5cf0U, 0xbd47dd3d3dbf53e8U,
  0x3e5a7b5f3cce1b84U, 0xbc34fd7dbd4e13dfU, 0x3d9693b93e085a9dU, 0x3c59e1b0bdef4671U,
  0xbf54047bbe88f945U, 0xbf6cc2f2be7f9422U, 0x3c97bc0bbddd81aeU, 0xbd82db0e3f188050U,
  0x3f295c80bed9d380U, 0x3da1c01a3d80ca9bU, 0x3d44c029bd55457eU, 0xbed109c93e1e66adU,
  0xbb2e22963df19fd8U, 0x3fb149a33c0f5465U, 0xbf5ba063bf32a6a8U, 0x3d052d2fbf3fe59bU,
  0x3da017f6bcb4d37aU, 0xbf1d6f553e23e00bU, 0xbf1f82a1bf9ee2f8U, 0x3b94f4c5bdaca828U,
  0xbe9316923fceb0a2U, 0xbfac79d7be047170U, 0x3da6458f3d7caf62U, 0x3e9e16da3e29b9b8U,
  0xbef02afabef2679fU, 0xbdc8de2fbefdc02fU, 0x3f89c60ebb6bc817U, 0x3d31b2c73e16f67dU,
  0x3d95fd80bebede2cU, 0xbdda6ea03d235e5aU, 0x3e2395963d8755ceU, 0x3df5070ac00fe2afU,
  0xbc5e06a53d33ed77U, 0xbf5835dd4010e330U, 0xbfdbdccbbf91453fU, 0xbe672b9abc9ece6fU,
  0xbf02d4c6bf15aa51U, 0x3d2779acbfa538dfU, 0xbd4a1c9fbfa4f299U, 0xbf772e47bcd81045U,
  0x3cd7e3403e770830U, 0xbd9da33a3fe411caU, 0xbfa17f4ebd3c47e6U, 0xbe7b1a66bfa2ca02U,
  0xbf026f403fdfa873U, 0xbd1d68f63d617320U, 0xbec67829c039f0f5U, 0x3f7cb765beb641ddU,
  0x3e22fdcdbda076b2U, 0x3f413efb3f09120dU, 0xbeaae530bdcf2b11U, 0x3bc88efdbd00844cU,
  0x3d60bd97bbd19348U, 0xbdd8fa20bebf3e86U, 0xbd0f171fbe70c3c4U, 0xbeffaa1d3cf92ce6U,
  0x3e661130bf52a472U, 0x3ec188933f192debU, 0x3d8f2a353c667d65U, 0xbf82b4d1bf077e80U,
  0x3f670103bf885608U, 0xbd562d84bd410e09U, 0x3e2d46b93eb04af6U, 0xbe7b77aabf744ab3U,
  0x3b1d1246bf5c8b0dU, 0xbe78909abc9de2e8U, 0x3dc64d6e3dee0597U, 0xbd655ad3bde3824dU,
  0x3e008992bdbc5fc0U, 0x3e2e68fe3e887e21U, 0xbdbc78293f3ce648U, 0xbce4c1463cdab42bU,
  0x3ec7d05f3dbb9295U, 0xbeb988d83e43f674U, 0x3d8d0632bd9c7d11U, 0x3f17f4863f170a0aU,
  0xbfa1cd72bdd34420U, 0xbc865326bef3bcf5U, 0x3f695d8bbd62c3d8U, 0xbf099643bef9f9d9U,
  0xbc8f63e1bff1753eU, 0x3f17badbbd867e17U, 0xbe91e0723f6b07e2U, 0xbf2f42aabf81883aU,
  0xbc37434d3e6ac9e8U, 0xbff7af203fec0ad3U, 0xbf91f4f9c00712e0U, 0xbe94091ebcaf181fU,
  0x3e41854bbd967fd0U, 0x3eefab0c3f1cb920U, 0xbd3094c83f3246b7U, 0xbf35d4c4bc27a8efU,
  0xbd37df02bb36dc10U, 0x3d8afcd03d3ef01dU, 0x3e32523abe336b19U, 0x3f9b0d09be4bde93U,
  0x3fa274563de189a5U, 0x3d8e5c17bd905d0cU, 0x3d55284abf211ecbU, 0xbec110233e305e9fU,
  0xbe2d4b943d8d5570U, 0x3d198b673c8b46d4U, 0x3f99f4c83e3dd43bU, 0x3e4951c13dd245dfU,
  0xbd309406bb2ead4eU, 0xbe84179ebe9f7d51U, 0x3d5ad9453fec1feaU, 0xbdaa2ab23dcc86b0U,
  0x3e8b90823dc3aba9U, 0x3e9a1161be17a353U, 0x3b01f655bc5ce40dU, 0x3c13930a3e1e8efbU,
  0x3f5f0efe3eb6e2dfU, 0x3d9362963d6a688aU, 0x3c9c021e3e89b56bU, 0xbb3c9ed0bf7060d1U,
  0xbda8144fbf816b1eU, 0xbe30cda03bc9a3deU, 0x3e7f7a123db2d3f5U, 0xbe2bb6903e8ce5bbU,
  0x3f897b923ca5d1daU, 0x3eb301fb3f696154U, 0x3f1e623f3f403a99U, 0x3ccb993ebe729dccU,
  0xbe0318cebfe406ceU, 0xbf960b2dbe8327d3U, 0xbd8ada133d666004U, 0x3e319b313d3bd23bU,
  0xbfaed7b7bf4adb8eU, 0xbe1ca3d0bf0029e2U, 0x3f6fcfc73d560300U, 0x3e16fa57be49eb0fU,
  0x3d80866d3e330da5U, 0xbed25653bec36ed4U, 0xbf1bf7c5beafeedeU, 0xbf613c9cbed79e72U,
  0xbd56d1aebe6d1ab8U, 0xbed3fd233ba4f94fU, 0x3e5d7cf4bf0d9504U, 0x3f21cf6d3e2d0105U,
  0x3f2022443f264837U, 0xbe24e0f13ef4d4b0U, 0xbdf4c4863e25d6bfU, 0x3e27e19a3ca5c040U,
  0xbf70cf2bbf3199fbU, 0x3dfebf87be974f5eU, 0xbb46116b3e16c4f9U, 0xbecae2d13dd1f6faU,
  0xbeb1c3073fe20f16U, 0xbd0249a3bdadef09U, 0xbccbbe35c01c38f8U, 0x3f14fd23be25d7e1U,
  0xbd7268cbbdbefec6U, 0x3f29e81d3f19b0d2U, 0x3ea1310dc005fd73U, 0xbc41b937bffb8e0eU,
  0x3e8a7269bcc51bafU, 0xbfafbb0bbf9d1b5eU, 0xbcb7dddfbf34735fU, 0x3e42d0d33dc8735cU,
  0x3e360429bd183cf3U, 0xbe3894513de94f3aU, 0x3d2044283db60134U, 0xbd59debcbdfcd8b0U,
  0xbdf4e734be283b0aU, 0x3d81aef23cae0de2U, 0x3ee2a8533dd93d41U, 0x3d44473a3f121e7aU,
  0xbc2f05d13eda4038U, 0xbf6a75cabcac1541U, 0x3e62d3a43e69e43eU, 0xbd8affaf3c55a8d1U,
  0x3f5373db3e340380U, 0x3efadf023f4a2e01U, 0x3e3cab993f16091bU, 0x3b236501bd09904fU,
  0xbf133c25bf9e0962U, 0x3ef8c2edbf0612cbU, 0x3d41982b3d440434U, 0xbe049768bef49832U,
  0x3f0864bfbeb0d487U, 0xbd8dc334be15c211U, 0xbfe8d1013cabe128U, 0x3e4430b13ed64d10U,
  0x3ccfaa5f3e99846fU, 0x3f6446c23b2e606cU, 0xbfd326bd3f7654d6U, 0xbfd0f9ce3f83c50eU,
  0x3cadc8273cc8939fU, 0xbf235a79bfed5c63U, 0xbfc93c9fbf4b8489U, 0x3e1ecfefbd129148U,
  0xbe4e5050be6c2eb0U, 0xbeeeae05bd3c555aU, 0x3cae62c8be50f46eU, 0xbe40e2f83cf655b6U,
  0xbe064d10bd479c6aU, 0xbe0515d63eaf9ceaU, 0xbd2063943e5b2601U, 0xbfa416e3be857a89U,
  0xbf8bf557bf79ccc9U, 0x3c39689bbddd93f9U, 0xbe399f1e3f2860d3U, 0x3f79735f3e79025dU,
  0xbde011153e3ddb8bU, 0x3f8deebb3f52c154U, 0x3f5001d3bee6685bU, 0xb99da623be7b58d1U,
  0xc002c74b3cc3cc6fU, 0xbe4957c7bf09d2d2U, 0xbd95bff7bf8a5ef8U, 0xbfcedf483d9510beU,
  0xbd4fde51bfdbf658U, 0x3dd582a9beff2b16U, 0xbd7bc867bd48021dU, 0xbbbc840fbef94ddaU,
  0x3f0ebf90be6d5aa2U, 0xbf3433c7bd6f595dU, 0xbe4c7accbe7b912bU, 0x3faa9008be023c01U,
  0xbdbcc0c13e4667aaU, 0xbe6a42083b6ec1ecU, 0x3cd0f979bbb03652U, 0x3b1f49333edb4e30U,
  0xbe86723bbcf4bddbU, 0xbe1e471dbe5db8d5U, 0xbe1f3041bf420066U, 0xbbbbe9ca3df0ce4dU,
  0x3eca84023ec63fc6U, 0x3e7c01a83ea8de58U, 0xbe498fd0bdd0468cU, 0xbde90faebdad1f16U,
  0x3f868c4fbe8a9bf9U, 0x3d8c63f1be488cf5U, 0xbf91c67aba98431aU, 0xbbd5347f3dbaa7d6U,
  0xbd18434c3ed58867U, 0xbecbbbb23d6838fbU, 0xbf0d27ebbf033a13U, 0xbf05093c3f748d3dU,
  0xbc9bfd9d3e27642fU, 0x3e3bb901bed5f55cU, 0xbeaac8cabe3cd61aU, 0xbe814858becdd78fU,
  0xbe2060cbbedd489bU, 0xbcf36ec2be06e02cU, 0x3e20e147be98b499U, 0x3f1799623c75a37bU,
  0x3eb225bf3e880954U, 0x3e8359333f45a755U, 0x3c08e68ebd2553d1U, 0xbe348523be4ba68cU,
  0xbe6f6e04bfa7b432U, 0x3c862aff3e1b2dabU, 0x3def35e23fd4a36aU, 0xbf0d4972bd8491caU,
  0xbd8651343e06a58eU, 0xbf5032febf118b4fU, 0xbd2fed2ebf12bd4fU, 0xbddd34c6beb22363U,
  0x3f0f6e553c9fe619U, 0x3f041fd43eadbc35U, 0x3d86fabc3f8ac9fbU, 0x3eb817c93dacbe74U,
  0xbe64ed9e3f35e362U, 0xbe626fdabe3dc789U, 0x3d9d7f24bcf9e1e7U, 0xbe538804bf92bba5U,
  0xbf012b7dbe944278U, 0x3e863d933c0c219fU, 0x3e177b0f3d91ec26U, 0xbdd6be2e3e8fc55eU,
  0xbe6028b4bd93ea1eU, 0x3d8e293a3d9dc237U, 0xbe72d1c0bc84b0f7U, 0x3e1a371dbe5163eaU,
  0xbe072d4bbebdc1b6U, 0xbe25a36cbecab8f2U, 0xbddf55273dc1a526U, 0xbc46eedf3e3d44c6U,
  0xbe5dd8ef3e4995cdU, 0xbdb1a5cfbe22dcc5U, 0x3ca2ef6cbd446ab3U, 0x3e5359c03ea0eef6U,
  0x3e5b3240bfe3f4d1U, 0xbe824e61bfe0b8a3U, 0x3f57eda73d382281U, 0x3e88941d3ea6e379U,
  0xbe5ed53b3f378f95U, 0x3f29f76c3c9aa913U, 0xbe96c0db3efbacb7U, 0xbdeb0104be48d81aU,
  0xbd2280c3be182cc4U, 0xbf061d753e83f614U, 0xbe1f4f7bbe84afe1U, 0x3ebf294ebe1d24edU,
  0xbe9c33e9bbebeac3U, 0xbe58575539b76102U, 0xbaadec15be116f94U, 0x3e9a71433c4c0713U,
  0x3b9c5a4abe9bd99aU, 0xbb8b73343ed1ad15U, 0xbe032a7f3d5714feU, 0xbde4ac793e975b62U,
  0xbe2bcd303f86c8b1U, 0x3cac924d3d093113U, 0xbce6bd7ec02266f9U, 0x3e0bb3363de625b3U,
  0xbd0bb0cc3c845befU, 0x3f27a2ab3f50b623U, 0xbe421534bf2958d7U, 0x3e4110cebf27db6dU,
  0x3fce51ccbb7b6ebeU, 0xbfbbdfe8bfadfbbcU, 0x3d965a8e3b422484U, 0x3eb39899bdb1d88cU,
  0xbf11259e3e33b4e8U, 0xbe9141da3d74ae04U, 0x3d2b8e08bde5ddd3U, 0xbe6ad8233ec77450U,
  0xbf0c91a8bf06e426U, 0x3db2405fbdd335cfU, 0x3ed789b63f32e9abU, 0x3ead6b45bf06e70cU,
  0xbf094f65bf51d23bU, 0x3e772597bd10615bU, 0xbf6187b6bf41127fU, 0x3ce23c44be88a1f7U,
  0x3ee06e32bd58942cU, 0x3ea1973d3ed54602U, 0x3dc3adbebe09c132U, 0x3d0493bd3d7ef437U,
  0x3e7c1fc53ed4e176U, 0xbf531f7abd8db8b5U, 0x3eb68ad23c4741a1U, 0x3ee7e8093eb0ca4dU,
  0x3f2b359e3dac0deeU, 0xbcb10094be50fbbdU, 0xbf4ebd6b3c99fffcU, 0x3e4735f8bd7403f6U,
  0xbdfcdd20bf5a1000U, 0x3dc996903d1e60f3U, 0xbf8a5032be46cad0U, 0xbf89ffacbd98a4a9U,
  0xbd53d22cbddc2582U, 0xbe30d68b3f3d3d9bU, 0x3e167d86bef52456U, 0xbe97c974be8b2a14U,
  0x3e34383b3eef5b97U, 0xbea47c7c3dcafda3U, 0x3cf55febbe3ecc1eU, 0xbec86323bc77d90bU,
  0x3ea139fb3d9c061aU, 0x3d19cc443e773465U, 0xbf0e65ca3d5cc8c0U, 0x3faa039dbf1517deU,
  0x3f99bd873f59b667U, 0xbca344e43cc718e8U, 0x3f112b54c0a99c0cU, 0xc04b0d953eb6ce98U,
  0x3d153573bd324ccbU, 0x3f087a2a3ee48ae0U, 0xbe8bf443bea4c6cfU, 0xbc7f4050bf333cb3U,
  0x3ea8f73b3c0a4f64U, 0x3dcff68fbdd063feU, 0xbce06ee6be143322U, 0xbe72c6bb3d90e5baU,
  0xbd848f0fbe24d4acU, 0x3dd55921bc1a5001U, 0xbcd36429bce795baU, 0xbebd8fb53f0c4945U,
  0x3f48c22bbe8ae970U, 0x3d30d8a23d7db9a4U, 0x3e96176cbd7622dbU, 0xbe2506ddbf195719U,
  0x3d8dac1dbf295441U, 0xbeb98fde3c68dc4fU, 0x3d29f5b03dc69566U, 0x3e00c8f7bc7a9b7eU,
  0x3e7fe0b53f93f244U, 0xbd37152d3e80dbeaU, 0xbe0a2f4bbe83695cU, 0x3cc5cf52be0b662dU,
  0x3dcd2cc73d756131U, 0xbec454873e9b0b4aU, 0x3da76ff13dc60b3eU, 0x3f489e893f00f0a4U,
  0xbf341af0bf20ac2fU, 0xbe02952ebf667944U, 0xbdb54c6b3b9f0842U, 0x3f313e903ecf0a62U,
  0x3e010df1bec47ddeU, 0xbe0ed6a1bec8aab3U, 0xbdc869153df95f83U, 0x3d2635b83e1f5b85U,
  0xbc8b064bbe85488eU, 0xbe9c194e3ebbd77aU, 0x3e46306d3d473f25U, 0x3e2d4e8e3def7b80U,
  0xbe050b4bbdfb8457U, 0xbfd69bf8bf7db8a5U, 0xbd95984ebf857501U, 0x3fa95f80bd049002U,
  0xbecf7520beb7fceeU, 0x3e4d9079bf2f82beU, 0x3fa2551a3d3d524aU, 0xbe35caac3f6a4d90U,
  0xbd6fea703e8a5641U, 0xbc6f00c03cd97d81U, 0x3c50376dbe08a076U, 0xbf87d5fabdadd2e1U,
  0xbcc48132bcf35029U, 0xbdb3d7ddbcc7c36aU, 0xbe8db7443eaff67bU, 0xbd1ac0da3eec9b7fU,
  0xbfb68cb3bd1602f8U, 0x3e82b7c93e9098f8U, 0x3d869617c00be8e5U, 0x3f0268433d5f4a95U,
  0xbd6c2f2a3e99f195U, 0xbe0435b33f5d0410U, 0x3cbc44423e19c73cU, 0xbf131d22bf417308U,
  0xbf6a82b8bf22bf5fU, 0x3da72e31be20033dU, 0xbd84161bbe5ca9efU, 0x3eb293fdbe690d71U,
  0xbd91b62ebe0acc20U, 0xbf3818f7bd2c2f98U, 0x3bad784ebe21e6f7U, 0x3ddc8a063df3a4b5U,
  0x3f004acbbd8fdac9U, 0xbf7552563e8558a3U, 0xbf8e967abed516e0U, 0x3ca36dbf3db2c9baU,
  0xbfecf7cc400ea76cU, 0xbc595b6fc004b016U, 0x3d6a0a84bbe497e4U, 0xbf953318bfbf3588U,
  0xbfae4143bf3a18d0U, 0xbd1a0043bf5390cbU, 0x3f0b5a4ebb015a11U, 0xbe886ee6be12945bU,
  0xbda8db6c3f36c316U, 0x3e38e1cbbe167198U, 0xbf998faa3e05afacU, 0xbf7ec4cc3f47d494U,
  0xbd15ebe53c993175U, 0x3e8a26213d7ab4b6U, 0xbda85767bdbb9897U, 0x3d8eb595bddeb3b7U,
  0xbe663874bc1c2643U, 0x3f12f841beef5352U, 0xbd0eb47ebe3817c7U, 0xbf07ee5dbb66d6c9U,
  0xbe2b09fbbe9a7ba3U, 0xbdbe8aac3ed5bf79U, 0xbf5391c1bdeb39f3U, 0xbe87b165bf4bee82U,
  0xbe795110c00d2b36U, 0xbc0f9cecbb8e1f57U, 0xbdb75b64401a9173U, 0xbf35c45a3cd0c804U,
  0x3d312a8c3d0e0866U, 0xbee36a51be3184f3U, 0x3bc4fc7b3db18660U, 0x3c91bd60be284c9aU,
  0x3ed49a4dbb5d8f0cU, 0xbe68dd693d26568dU, 0xbd05149abdc084e7U, 0xbf27c5693da8f1e4U,
  0xbf1641babf0dad9bU, 0xbefacf94beed859cU, 0x3cc3ea8dbe6a369aU, 0xbfdfbc0a3fb60072U,
  0x3e45122cbfebc902U, 0x3d4a11223dc68370U, 0xbeb16a95bf05d169U, 0xbf6b6f3f3df364aaU,
  0xbdc27533be40b3d2U, 0x3fa3e8db3be42c89U, 0xbf5127ffbf6bbe6eU, 0xbc8c3c3abfaf4ab0U,
  0xbf0ca588bf1f11a4U, 0x3d1565a8bf1f0ab5U, 0xbd457de3bf54b2e5U, 0xbdacf4ea3d3f8fedU,
  0x3f07c096be2e2e5dU, 0xbe835f283ebb17b6U, 0x3de8af563bfacf3fU, 0x3f0121e53e7ea91eU,
  0x3f803028be4b3ebdU, 0x3e015f713dbb6cf2U, 0xbf2565e5bcb5a4baU, 0xbf360237bef2a12eU,
  0xbdfbbe4b3f242db8U, 0xbd8420463d6af452U, 0xbf018c623e1dea53U, 0xbe27909fbcac08ccU,
  0x3d8ddf37bcdeb770U, 0xbd30548fbeab9440U, 0xbe848a2bbe4b970aU, 0xbd0112aebe69fd79U,
  0x3edf38693da9771dU, 0xbda5ebcdbdce36b1U, 0x3d04d7b83cde099aU, 0xbf1f1fe73c869163U,
  0x3df31bc93dafa53bU, 0xbcca15d93e0a74bdU, 0x3f7bbe423dcc33fbU, 0xbda675263f483e69U,
  0x3df51487bf83a2fdU, 0x3ca686d8bb873e41U, 0xbfda04b33fc542dbU, 0xc01aa254bfc698f5U,
  0xbcbb44323d8f9d13U, 0x3e8418933e8bc9e1U, 0xbfd235ecbfac10e0U, 0xbe0fae23bf988151U,
  0x3ff28a8bbc9ea062U, 0xbf136b66bf033638U, 0x3d8daa55bf08934aU, 0x3e4112023d8bc1baU,
  0xbf01faa63e72aafcU, 0xbf59f7e8be0a1e29U, 0xbc0ad9b53d94cfceU, 0xbdd8c776bf05c60fU,
  0x3f3db3b43e675016U, 0x3d9bc9b8bc1ccc9aU, 0xbee03bfdbecf4e32U, 0x3df9cfde3edbd9adU,
  0xbc13ab723e95af3eU, 0xc013660cbd48c904U, 0x3f0600853f37157bU, 0xbe3700cdbf7ccb30U,
  0xbe9a9bba3e1d460dU, 0x3e0dbb4ebf04cf34U, 0xbdf1d02d3ed0c06cU, 0xbc8ece243d81c532U,
  0xbdfcdd983f3b6df8U, 0x3f9c9872bd7c37f5U, 0x3d1467123d7d6a84U, 0xbe97067cbeebca35U,
  0x3e420314bf25af61U, 0xbd009cd0bf06f843U, 0x3f56cea63d005ad8U, 0xbf3b84bbbee198feU,
  0xbd316f813f17bb4eU, 0xbee138a03cf5f93eU, 0xbf49458fbf17f415U, 0xbf06a195bedb6cebU,
  0xbd12563b3e7f24e0U, 0xbe7c2a1d3eb82843U, 0x3f86885dbeaf6ad1U, 0xbe842ec4bdd981a7U,
  0xbe8d528cbf12899dU, 0x3f4ca6983d0a0aa0U, 0x3d23de22be0a7035U, 0xbc1e90edbcdd02f1U,
  0x3c52740bbd7e3ddbU, 0xbd819b37bcfc63ffU, 0xbf8e419d3eae75feU, 0x3e0f9790bf7a4b17U,
  0x3e0110d13beec9f2U, 0x3c7feb12bd130694U, 0x3f00f309be1ba4adU, 0x3f93cb773e779badU,
  0xbd5abef23cee0352U, 0xbf9ad396bfa1ee59U, 0x3deeff433e235198U, 0xbd66daaf3d8fccffU,
  0xbd753834bcb02552U, 0xbd8906f9be08cafbU, 0x3d6382333f9db49bU, 0xbff75b8fbd9f55c1U,
  0x3ef6b763bffc86d0U, 0x3efd569fbf418ac9U, 0x3d22b2f9be27fff3U, 0xbfb8d6643fcab165U,
  0x3f9b2f6bbfc0c6c8U, 0xbf08e2773e34d726U, 0x3d7505213d618cf9U, 0x3e025bd6bea5a4ddU,
  0xbe3bdd91bef8211fU, 0x3f3ef4aebc34e35eU, 0xbea8193cbd5f7f60U, 0x3c7eabcd3f1393c6U,
  0xbf4c94843d46264bU, 0xbf761441bf8ef7ccU, 0xbf8dd7b3bf9cab2bU, 0xbb3a58e1bd68b225U,
  0xbecacb943fce0af7U, 0xbed4eca9bea086c1U, 0x3e48861dbd950a5fU, 0x3d03a53ebd7efe28U,
  0xbe9863e4becffebbU, 0x3dedf8f9be7cce8dU, 0x3f7503c13b8feec2U, 0xbf6cc9b1bf38320fU,
  0x3d15f20ebef63410U, 0x3f10783d3e1e7b1aU, 0xbf2948c23f0cc838U, 0xbf1d5bbb3eeb820bU,
  0xbd53fb923d0b6ee5U, 0xbf2e1e36bee62bd8U, 0xbce71fc7bf3462bcU, 0x3d87c198bc0c235eU,
  0x3d093d68bd0d7ee6U, 0x3da074eb3e82207aU, 0xbcdc31813ac0fe2aU, 0x3de4bce83bc2a179U,
  0x3dcdf1cd3c22b6b9U, 0x3d8b003a3e73ef7fU, 0xbcef65433c976446U, 0x3e8e1d97be56b466U,
  0x3ddd679a3e8de088U, 0x3b8df4373cdb4aa5U, 0x3e1dbfbb3f285999U, 0x3e7b81c43e25bd95U,
  0xbdc4c735bc1c4575U, 0xbfa02132bfaf748eU, 0xbfbe213ebf77eda5U, 0x3bec2c23bf6c1f11U,
  0x40119957bd8d2a78U, 0xbe9504febe19916fU, 0x3dd491203f985aa4U, 0x3e0cf515bd76232fU,
  0xbdd10ad3be1bcc35U, 0xbcfc2c313da7b1c0U, 0x3c0f5931bcdfe7f3U, 0x3c5e55abbf5c083fU,
  0x3eade6ba3ce25cd7U, 0xbdfd5383bb4a5f92U, 0x3e5c69cf3ef41b9cU, 0x3cdd05b0bf69a1e6U,
  0xbca4700abf5c565bU, 0xbf0124da3db26260U, 0x3e65b4903d7d77ddU, 0xbd50d77c3da87c94U,
  0xbe8a7bd23dcc8c29U, 0x3f0faa51be56de71U, 0x3e9098efbd495959U, 0x3cf3ad0c3cca3553U,
  0x3eb1d4b5bf3a757bU, 0x3e1c49b73eddcdb3U, 0xbdf0e4183e2018e7U, 0x3f1e13ac3f125b1eU,
  0xbf34e731bcb13072U, 0xbe33e7793dd16542U, 0xbe6116a8bd855609U, 0xbd55d7c13e9ace11U,
  0x3db61e31be5233bbU, 0xbe9097803fc4300dU, 0x3dd06fbabf0f4f4cU, 0xbe30ce653e7f56baU,
  0x3d30eba4bda08375U, 0x3d4d7177be1c4827U, 0x3ea63af43cc5afdeU, 0x3ea6fc543e1889c2U,
  0xbf932790bfa693bcU, 0xbfb6467cbf8f6fffU, 0xbdcbf12dbf5ff18eU, 0x3f182826bc81e422U,
  0x3f61bf843f53af14U, 0x3e0d492f3ee9fb31U, 0x3ef0f2e1be308536U, 0x3ed894c43f323c70U,
  0x3e74db1abeaf4d4bU, 0x3c81726abce6a889U, 0x3f0ccd253f09152fU, 0x3d436abb3f0838e1U,
  0xbd01506abdc7d5e6U, 0x3f80c36e3fa882b5U, 0xbce116503dee470aU, 0x3a5bdad23e415e37U,
  0xbf5508fabd4bc2c6U, 0xbf6c72c3bf5d29a3U, 0xbe3b6d96bf693189U, 0x3eb01e65bdadbba7U,
  0xbefff56b3eb0475cU, 0xbe5f2e953ea352ecU, 0x3ca69a04be3945a0U, 0x3ded15d4be5f259dU,
  0xbe45aad53e5f1a32U, 0x3e0f80893e2b5400U, 0x3f7467553f3148fcU, 0xbf1fa542bf15fc4bU,
  0x3cf15feabe591f5aU, 0x3dae4a4d3d13273bU, 0xbfab52e1bfbe6863U, 0xbd39399ec01cb21bU,
  0xbe32621b3e337e71U, 0x3f3b18d63e5b390fU, 0x3f38205b3eae8d49U, 0x3d12d97ebc5e9da1U,
  0xbed43798bfbfb9f6U, 0xbe813a32bf08a27bU, 0xbbdbbc203d9a0603U, 0x3e8f539a3e941cd1U,
  0xbf707b13bf5ce6b2U, 0x3d74a0cebf6c6512U, 0x3f84debe3c516ed5U, 0xbd31e2debebaf506U,
  0x3d0769f23fa5e82dU, 0xbce7cf733e1310e0U, 0xbe52aab93c453ca9U, 0xbe84357bbe17d530U,
  0xbd3499983dcef54dU, 0xbeaca1a43e6ee5bcU, 0x3ed8857fbea41248U, 0xbd7080b4bd1abcbdU,
  0x3ee642343eaaefddU, 0x3ed94e6fbf471b6aU, 0xbc955374bebc7ddcU, 0xbf04a6c1b9a5418aU,
  0xbd8d8bfcbe6289b0U, 0x3cc0db69be12d893U, 0x3dfae00cbdfdf1a1U, 0xbee5f936bdff6e71U,
  0xbf217672bd93cad9U, 0x3d3806203ca63446U, 0xbef853f3be4197b3U, 0x3f6f8a94bf033985U,
  0x3ab603ec3d80984cU, 0x3f482d653f87eb85U, 0x3f218b25bf2f67efU, 0x3d911aa8bef44100U,
  0xbff8c839bd22a078U, 0x3e95dab23ebf9b4eU, 0x3c48d967bfcb4ab5U, 0xbfa8b7c7ba1d7e36U,
  0xbf0b8c45bfb6b36dU, 0xbea42632bfb02cb5U, 0xbcd3a7cfbe4888ebU, 0x3ef783193eab1e6dU,
  0x400185173e2852b8U, 0xbe30261d3cac54cdU, 0xbecc29debeaa7d44U, 0x3cc5e18e3e758aeaU,
  0x3e5731313eb9f6bbU, 0x3f20f228bcc8bc26U, 0xbed1ed7abf1a3483U, 0xbdad96c6bd211ce4U,
  0xbf81f2c53dada4feU, 0x3f395451bf84182cU, 0x3f89965fbdf69ecaU, 0xbda97488bc9bc40eU,
  0x3f6d7469bf710390U, 0xbe4fd9213f4ff0b3U, 0x3eb20b4f3dceb0f9U, 0xbfcb9c89bfcf5a20U,
  0xbf9464443f74e28aU, 0xbe3828703f510cbaU, 0xbfd5b19abc7c8ae4U, 0x3f814e463f8eec87U,
  0xbb8a3e03c00b76b9U, 0xbd1e4dcd3d472450U, 0xbd98d9b3be1a589dU, 0x3d36053e3e902182U,
  0xbbd2148dbdbf9744U, 0x3e63a08b3e472d11U, 0x3f1d2d5ebe24682dU, 0x3dee7ae33ccfd8f7U,
  0xbe98724fbda142f7U, 0x3dc75bcdbf840081U, 0x3dee8d5bbf957694U, 0xbe039cb3bc8384ebU,
  0x3e5b61133dd99ce4U, 0xbe02805e3f09f4daU, 0xc0037bf0bdbee463U, 0x3d827ec1bfff1625U,
  0x3d53dc99bf4bd0afU, 0xbd0f93313de4d854U, 0x3f26cb4d3f6ba8aeU, 0x3f9051fb3f61d9c5U,
  0x3ec139d6bd633efcU, 0x3e0276213e283709U, 0x3f8719ef3e1fc41fU, 0x3ce8dde7be0537beU,
  0x3f24763e3cb19352U, 0xbf8a6989bf893c23U, 0xbc5760363f145cbdU, 0xbf0648da3d057edeU,
  0x3ebb0651bf361b4bU, 0x3e93a1cabf06272dU, 0xbac64edf3d2ccb7eU, 0xbefc036f3f0160efU,
  0x3f29d9f2bf29267cU, 0xbe9850dbbd66ad52U, 0x3f190e5a3f1fb09bU, 0xbf2ea0fdbe99218aU,
  0x3cb395d7bd2650a1U, 0x3fb42bf23c1b55f0U, 0xbee54c5fbf2d0686U, 0xbd7d4ba3bf4d2decU,
  0xbebece603ae3c0a3U, 0x3e8c2e89bec8f622U, 0x3e6dcf9dbeefff6dU, 0x3b2366debd992d94U,
  0x3e32aa8b3f9086bcU, 0x3deee735bb18cad8U, 0x3d87454ebc7e6ca9U, 0xbe0fae03be0cf901U,
  0x3e9b238abf3e837cU, 0x3e29d045bf2331a2U, 0x3ec3cc6f3ce912e4U, 0x3ea1773e3e237aeaU,
  0xba9213ef3f33b16cU, 0x3da31b3e3d3a206eU, 0x3f07ff593d2145f1U, 0x3e22a958bf1a9657U,
  0xbc695522be6658e3U, 0x3df0270fbf34db20U, 0xbfaf4a21be9bd273U, 0x3e1dc0cb3c1c3b6fU,
  0x3d70fdd23e8f2ab8U, 0xbef1ddbc3e3fb2d9U, 0xbeb90c023ebc6949U, 0x3e9ef3c0bd9341e0U,
  0xbe50b9e9be1a5f55U, 0xbc407826be1c349bU, 0x3e3c1d16be01c456U, 0x3f0bb3a63e1ad83fU,
  0x3edae435bf39d2f0U, 0xbc7c64823d9b7062U, 0x3e53079bbf8cfe57U, 0xbfd5616b3e9f8536U,
  0xbe53bbb7be05e084U, 0xbedca7c0bf107e92U, 0xbf5f97073e7d43f2U, 0xbe0428123e186113U,
  0xbf541550bd23d196U, 0x3f4857b03f17f4ddU, 0x3e6a7960bf771b21U, 0xbe82dad03efa6224U,
  0xbe46bbe9bedf7ce0U, 0xbe9505f43df37b31U, 0xbc96b58f3e76b632U, 0x3d4355cabe8c800bU,
  0x3f05437bbdd70faeU, 0x3e410b30bd8a6ceaU, 0x3e67712a3e57f58eU, 0xbe8c3f5ebe3bd8a7U,
  0xbdee82bcbe5b3ad5U, 0x3e7cd231bb48b8ffU, 0xbf176d61bf7f23b4U, 0xbe41c80abecf814cU,
  0xbf8bdcefbbccc61fU, 0x3debae61bfb37d4aU, 0x3e1924b8bc5c0329U, 0xbd80b0afbc0a191eU,
  0x3f03b6cbbe88fc54U, 0x3fba02363ee630ddU, 0x3e5a54a33d0c4fa2U, 0xbdd6e9ee3d5ed8b4U,
  0x3ec32f47be65c3e3U, 0x3dc584f93c8716efU, 0xbf25cd4f3c2b6e10U, 0x3cc8d2be3d3d9c68U,
  0xbe279fbf3e912f74U, 0xbcd17c0cbedf39faU, 0xbf7c4e1f3d4ad4eeU, 0xbf8f8027bf403e8cU,
  0xbd90063abe1f56c4U, 0xbe44c6673fcaeafdU, 0xbd8b426dbec97a19U, 0xbf2904823e230267U,
  0x3df632833ea1d58fU, 0xbeb0509c3e9f2298U, 0xbe2480ee3919db13U, 0xbe8b78c93c2305a8U,
  0x3ced3f29bd3610f1U, 0x3d8b15f1bf062a89U, 0xbf1652acbe2a4597U, 0x3f24dda1bf533bc5U,
  0x3f0dd3d53f3b0b5eU, 0xbd0bec68bd1b3678U, 0x3f761587bfd964faU, 0x3f6bb7603f4acd73U,
  0xbe249bf83d74634bU, 0x3e2fc95c3d1288c8U, 0x3e6db55d3dcb2d48U, 0x3d6890ec3e483384U,
  0x3f6ecf81bd98cf8eU, 0x3d75acdd3e06a914U, 0xbe04a8df3e73241aU, 0xbca348a23e8321b1U,
  0x3e6a2209bcbfbd91U, 0xbce302f9bd5fb66cU, 0x3af9f124be69d706U, 0xbee4e8a8c000a728U,
  0xbff7364dbe69f290U, 0xbe2860343df0b3fdU, 0x3f563e533f25afb7U, 0xbf0bf93fbf7db051U,
  0x3cb00e94bf17ce68U, 0x3f8351fdbbe91d26U, 0x3e5b6c983d7354e4U, 0x3ce185cebf452fa9U,
  0xbe7b07bc3bb268f7U, 0x3ec25f82bea58982U, 0x3ed350693e12e868U, 0x3c9ab6d5bbb24915U,
  0x3f0ea0e5bfd8704dU, 0xbe1c8d793f172256U, 0x3c9de896bccb147dU, 0x3f6be8c63f63ced3U,
  0xbe6d9e2ebf0ab599U, 0x3cbb3f5abf1a4ab2U, 0x3e83a521bc3e68e8U, 0xbf51573fbf41d9c8U,
  0xbd5390eabfcfcbd3U, 0x3f117c52bd89a914U, 0xbc978df43f13ff86U, 0xbe1cdab43dc76ce1U,
  0x3c617ea8be6afad1U, 0x3ee8e0b3c02cbcc3U, 0xc038afe43e2133b6U, 0x3d21c5ae3d531d6cU,
  0xbe5270d0bf0e178cU, 0xbe1a3e20bf0cbe7eU, 0xbe6c900cbe865b4eU, 0x3f2fe8db3c9e554fU,
  0xbc20311c3e416240U, 0x3a889b503f22c469U, 0x3eabadc1be3b5ab2U, 0xbe958d293dc6ba4cU,
  0xbe2f4fea3f089ba3U, 0xbc3632013dd91a07U, 0xbe8e0b1fbf9ffa38U, 0x3e0adeacbf0aee62U,
  0xbe273f113def101dU, 0xbf80f91bbf801186U, 0x3d7a2687bdc1ac4fU, 0x3d0c66efbe3158e4U,
  0xbf97543e3bdbdc66U, 0xbe11d6debedd54feU, 0x3d94726abf08b3fcU, 0x3eae86973e82ff9dU,
  0xbd7347b83e955e3cU, 0x3c36254cbf11eec7U, 0xbd05b7e33c272d71U, 0xbe2b80103fb5a6ebU,
  0xbebfd003be046e5fU, 0xbe28cd4a3e613933U, 0xbef562a0bed3bb1dU, 0x3d1608dfbf29a709U,
  0x3a259a52bf6d900bU, 0x3e5f9d393d04eef3U, 0x3e0114123e29912bU, 0x3b026b2d3f3d4c27U,
  0x3f6be82bbcc66458U, 0xbe0033da3f5749cfU, 0xbe41fa3f3f033a36U, 0xbd1d72a23d9df5d5U,
  0xb9b82f51bfbd0ee3U, 0xbf9a0817bec1bfbeU, 0xbc9ce7293ca161aaU, 0x3ef665043e24a85eU,
  0xbe28d804bf136354U, 0xbbf1dee2bf2e93f1U, 0xbe62585c39c2e9acU, 0x3df7bff73ec165c5U,
  0xbc554f213f74bc95U, 0xc015301d3e1bcd3eU, 0x3f628fddc01704c5U, 0x3f2f586fbfefb465U,
  0x3da54cf93cc7d475U, 0x3ef5a777be20c2f3U, 0xbf6d17bd3f2708acU, 0x3e002d463df482c0U,
  0x3f35c70d3f02f7c9U, 0x3e8a260fbe2d6727U, 0xbcbb9e853d3f2893U, 0xbf76baf2bcc83845U,
  0xbf20ef60beb779a3U, 0x3c84b3d23d7fde09U, 0x3f067f73bd5344d5U, 0xbf04f6983f0a2afcU,
  0xbf4858ffbd84e748U, 0xbd6742203dd0f8eaU, 0xbf3d0dafbfb942e5U, 0x3b6a8b97bf3ec70bU,
  0x3a314e1e3d13d72bU, 0xbdb78e2ebea41506U, 0xbe3d001bbf3e5579U, 0x3e3f6d6abf037139U,
  0xbde38b67bcc3b695U, 0x3e94285b3e8eea73U, 0xbd88b6063fc35505U, 0xbfd3b60bbdb68c3eU,
  0xbe577f80bfbdbad0U, 0xbea8481abd760b24U, 0xb9e598fa3db20d2eU, 0xbf30661ebf571419U,
  0x3f1c2340bf17280eU, 0xbd0dfdf6bc041c7aU, 0x3df9e5c6be520c2dU, 0x3d0947763e8ed5f7U,
  0x3ca7ea0fbd82283aU, 0x3f014aac3bdebe88U, 0xbd8bf1583e305893U, 0x3da1a63dbea68b3eU,
  0xbee4a06c3d2ceb3dU, 0xbe99a23cbf52c0d9U, 0xbedc8aaabf59f8d2U, 0xbbf6cf6abc30eb4aU,
  0xbf7ad9c94040d046U, 0xbe81c848bf272619U, 0x3d18ff4c3b9dac98U, 0xbe97427c3c5ea1aaU,
  0x3e8c3cf3bf49a5efU, 0x3e47ba52bf3e143eU, 0x3f8eebb5bcf7e1efU, 0xbe6f631fbebb5a1bU,
  0xbd82fc86beea07faU, 0xbecc82debda3136fU, 0x3af0ade6bf42ef3eU, 0xbc9e871bbfbbb278U,
  0x3d1d80033d937c2eU, 0x3e929c003f6cfc7eU, 0xbb9de06ebd4a31deU, 0xbeacb03f3db9aad3U,
  0xbfb54838bfb70254U, 0xbf3c7d41bf5c988fU, 0xbc83e037bf6a81dcU, 0x3e896b6d3d685ef3U,
  0x3e7fc74b3e7ed0aaU, 0x3dd917ed3fa41ee7U, 0xbf61e99c3e384fe0U, 0xbd1744afbf28a93bU,
  0xbe970e17bf0f215fU, 0xbc16f6673e3813cdU, 0x3efa9b943f29b64eU, 0x3f911d823e0a8c9bU,
  0xbd42c0f4be01cbf5U, 0xbe1aef19bddd7111U, 0xbd27fcb8bf3f66a2U, 0x3e9f5199bf646825U,
  0x3f878377bc8f41caU, 0xbde4e9e6be1d77b9U, 0xbd3f1e763f36423aU, 0x3e463b7cbcaee5d3U,
  0x3c2befea3ea5117cU, 0x3e16cad7be7141faU, 0x3d6e1b403e063516U, 0xbee499773e3336b8U,
  0xbcc5dbc7bf033c5fU, 0xbd36cc42be944591U, 0x3e7969bd3e2c1048U, 0x3d51075fbe5556c5U,
  0xbcbbaba4bed4d818U, 0xbf01cb04bd2c6dcbU, 0x3da444dd3dfbdd38U, 0x3da07feabeb8178fU,
  0x3f36d0473d3bc5f7U, 0x3e9668f43f014769U, 0xbdbdd1bc3c75f43aU, 0x3d1282d3be1376d9U,
  0xbee2666fbecaabb6U, 0xbf8ae7adbe5831d9U, 0xbdbe07593d305c73U, 0x3f0008933ebf3030U,
  0xbea803a5bea76485U, 0x3e033717be45de2cU, 0x3e8647243be061c9U, 0x3f0299183f16c912U,
  0xbe5722c63f301d8eU, 0xc008a1773e271089U, 0xbf62141dbff276f2U, 0xbf2371f5bf87e376U,
  0xbd8cee3abe8a390aU, 0xbef01f313f17b215U, 0x3fba8c5bbf2b4f55U, 0xbd5ffb4dbe621058U,
  0x3e611da23e264885U, 0xbd831e003ea7546bU, 0x3d96dadc3e55badfU, 0xbec49e3abb4218e7U,
  0x3f07445a3e998b2cU, 0xbd024237be03746cU, 0x3f3f13acbbba7570U, 0xbdaab7693eb4fc12U,
  0x3e51c4103e5fd1f7U, 0xbc7bcb70bc979541U, 0xbfbf96733d9f024bU, 0xbdcf7d96bf935551U,
  0x3d521928bd816abfU, 0x3e8c08b23e134ec7U, 0xbfc422373edc547cU, 0xbcfa8c4e3d81d906U,
  0x3f91868cbc4048adU, 0x3e0faa82bdc213fdU, 0x3e0927a2be926e83U, 0xbfdd5a26bdd46a41U,
  0x3f89c127bffad8d2U, 0x3f69105dbfadf273U, 0xbd1b781b3ca4f784U, 0x3f6006b1c01eb186U,
  0xbfe3226c3f58de14U, 0xbd57a5663cada0b4U, 0x3e3bd342be695bcfU, 0x3f6cf9d03e50e62fU,
  0x3d62148e3ecf5447U, 0xbfc381f2bc113628U, 0x3d30d6ca3d8509c8U, 0x3ca2681cbe648da6U,
  0x3de3c4e63ebbf4b8U, 0x3eaa12383da679a4U, 0x3d8e087ebf620d90U, 0x3cba15e93d824995U,
  0x3ea6437c3f80fb85U, 0x3d0f812ebda20604U, 0x3bbbcb623e493ca9U, 0xbef68521bf0c609bU,
  0x3e7407a4be84b308U, 0x3e5976babee81dbdU, 0x3f4d1bd73be7f21eU, 0x3cfc4eed3eee3b29U,
  0x3ebdfd713f9c2d0fU, 0xbcbd4752bc5d0f77U, 0x3e895a22be8229a7U, 0x3e52c343bf308a15U,
  0xbce4e918bf212739U, 0xbeb5fe343f1835f0U, 0x3e94f20bbbb5b0aaU, 0x3e82d2eb3f401a58U,
  0xbe5dfa45be6e0a81U, 0x3e3bb8edbc95c213U, 0xbe07dd193e9705c2U, 0xbd82b16f3d23c4c3U,
  0x3e8856f33e55d15fU, 0x3e306fc2bf08e88aU, 0xbf177f94bdf2c9daU, 0xbf99485ebf1eafb9U,
  0xbf89edbc3cf504d8U, 0x3d2af5f83d4663a8U, 0x3aa61ce43f84dedbU, 0x40055817bd05a174U,
  0xbdc03746bc9f8cb6U, 0x3f21f8f03f4aa2c9U, 0x3d0430783e8ae3f7U, 0x3deca5173d31b481U,
  0xc021cefcbc5d423aU, 0xbe46e496be944e65U, 0x3db51206c03c311bU, 0x3f01845cbe882760U,
  0xbe8ab1c13e8bc8b6U, 0xbed8a21a3e2986f6U, 0xbc8a598d3bd183ffU, 0xbe1f2354bdcf7946U,
  0x3ee70e72bd3e41e4U, 0x3dd4a24ebc1849afU, 0x3e009cda3dd6b74eU, 0x3f64d9593bfd8521U,
  0xbd85a841be0182c4U, 0xc00fdc9ebd9cf512U, 0x3e42598e3d1fa6caU, 0x3c12e2c43e68d9a0U,
  0x3e8651cc3e0d2671U, 0xbc00795c3e476745U, 0x3c0725253cdcf086U, 0x3d0396cb3d5ac2b2U,
  0xbf4405d0be92d13fU, 0xbf298c7abf0c037cU, 0xbd959f4e3d9f7f8eU, 0x3f19d4043ed26a2bU,
  0xbda915dc3e3c976fU, 0xbdd049723ecf5cdcU, 0x3ec681c8bc76c7d5U, 0xbdbb49d5be55e198U,
  0x3d8cb2ffbf19bed3U, 0x3f3be48abdef2c54U, 0xbf4200cd3f4c461fU, 0xbf261a5b3e54af12U,
  0x3c0c949a3e98c68dU, 0xbe8f0eaec02828d0U, 0xc02765f7be96487cU, 0xbef27495be2868d6U,
  0xbd8fdea93c9b6fa2U, 0xbe602ad63e1d54f8U, 0xb8a70f583e197ebaU, 0x3f00a6d83cd973ccU,
  0x3d89a1fe3dfaee54U, 0xbb2be90b3e93e55eU, 0x3e035280bd8f0839U, 0x3e9aee063e9c5cf8U,
  0x3f163d6bbe89a9efU, 0x3bec2ff9bd3368c0U, 0xbe0868203f44f7bfU, 0xbf3fc6fabe9a4408U,
  0x3db02b89bd2ff77fU, 0x3d88f3ddbd339586U, 0xbd81f7f2bef7afdbU, 0xbdae6a6dbdeb6a7dU,
  0xbdab1a16bce92828U, 0x3ea64b003e5833c5U, 0x3abf6672bee664adU, 0xc081d983bc4bf6a0U,
  0x3ebea4eec08776f8U, 0x3e114946c033d373U, 0x3c5ef142bc9050caU, 0x3f56fa1dbf09ada3U,
  0x3f9bab173f0d6790U, 0x3e83159ebc347eccU, 0x3e9e7d473d64aeb8U, 0xbf00c9153dffda93U,
  0xbcdfdd6ebe551d77U, 0x3f4686393c3e4e68U, 0x3e1d95f13e953ea4U, 0xbd24b64dbdd3d997U,
  0xbf34f231bcb01273U, 0xbe7f535cbf4a1090U, 0xbf0def943f40e7caU, 0x3d14af303d62c8ddU,
  0xbe31a4afbe5639a2U, 0x3f92bdb63da0df73U, 0xbdb684ad3e307de3U, 0x3eab9cab3bce7ec8U,
  0x3e930198bf05069bU, 0xbe514290bf1be0e0U, 0x3e4d93ce3b2306b1U, 0x3ef5ae0c3f10937eU,
  0x3debf7083d2d392eU, 0x3d3b9c25bd7832adU, 0xbde0827e3e9be87bU, 0xbe76c8e6bf3d2f39U,
  0x3e0006733e0ee7fcU, 0xbf9a36ab3f85f83eU, 0x3dabe5babf550ee3U, 0x3dc7fb31bd54058aU,
  0x3d904405be12c553U, 0x3edeaca73e67b144U, 0xbd84b4713db6be8aU, 0x3f1b7546bcb89539U,
  0xbdafbbd8bec34b31U, 0x3cde3a433da1746eU, 0xc030001c3ccd1bc1U, 0x3ea06a3bc02a1f23U,
  0x3e93c46bbe5ac7f6U, 0xbced3e793d4b240eU, 0x3ed1551dbffe94dfU, 0x3fc28df43ebfe1ceU,
  0x3dfe572ebd1f38e4U, 0xbe00dcebbf0a1fb0U, 0xbd34ce3bbec92435U, 0xbd5b6121bf49e744U,
  0x3f874c693cb1b2adU, 0xbe563486bead2b1aU, 0xba6e8bc63ff28682U, 0x3c9a8598bc614191U,
  0xbe6bfe8c3d20ede2U, 0xbef991e43ee5c43fU, 0x3d40e1f63cd3a325U, 0xbeddfc97bf2baad2U,
  0x3dc370aabf075f40U, 0x3da46c203b88b42dU, 0xbe8e25493d0faad0U, 0x3dfa7ad0be5173e1U,
  0x3cc4e6dfb9b97dd8U, 0x3e05b0583d05de69U, 0xbea9279fbe2fed2fU, 0x3d8d50393e1c9b44U,
  0x3d92f6dd3c5f4ce3U, 0x3e9bd6be3ccb580fU, 0x3e3499ed3e64b4cbU, 0xbc045d75bcbec1a4U,
  0xbc717b073f1f628cU, 0x3d354214be6b2358U, 0xbadf2c323db49d77U, 0xbeddb60dbec9ebe2U,
  0xbe4019d53e88fcb4U, 0xbe4ce7323d839213U, 0x3f7708413ce5f5b0U, 0x3ec58e083e91767aU,
  0x3db90e50bdf3a088U, 0xbf0ea9d83e0aa600U, 0x3e2d987dbee1f57dU, 0x3eb592dabec53b5eU,
  0xbcc85edcba51ad83U, 0xbfa4f4f8c03c54daU, 0xc0397e71bfa12227U, 0xbe9ea2babd8726ecU,
  0x3e1981523e3dd226U, 0xbe9c616a3e53837fU, 0x3d65dbd13ee70275U, 0xbebfa0bbbb953dc2U,
  0x3ebf370f3e2eb0f3U, 0x3def549abeb4e1acU, 0xbe62ca7c3eb903c6U, 0x3eca2ccfbe9b5209U,
  0x3ece82fabeca74e8U, 0x3d6fffedbddc0f28U, 0x3f3d1b893ed3bcd6U, 0x3c851d1e3f01c587U,
  0x3d3ffd3f3d1a7f92U, 0x3f616fd73f3a05ccU, 0xbdccec0f3f1d4db7U, 0xbeb6133c3f2703efU,
  0xbf80cfb13c8277d7U, 0x3ec232273d829a14U, 0xbda07d50bfb1473aU, 0x3f279724bcecaf27U,
  0xbe49482f3f389aaeU, 0xbe7db02a3e94d702U, 0x3d0f5ef3be14c0a6U, 0x3db15a343f31f15dU,
  0x3e72fd553dd7d5b8U, 0x3e28f3f53dc55862U, 0x3b064a323db6e73eU, 0x3dab4582bee6ec20U,
  0x3e08d490bdaeda3bU, 0x3fa65b7ebc649954U, 0xbec7c266beb1f7e4U, 0xbe228536bed75384U,
  0xbda3f08f3e00ff59U, 0x3c8a9e46be693081U, 0x3d548c47bf08e95bU, 0x3ca3da273cc79039U,
  0xbc79e51c3ff95acfU, 0xbf96e7f6bebaf873U, 0x3e1a704abe2788b7U, 0xbec1f4d3bf1048f7U,
  0x3f6d82babeff2e2cU, 0x3d87ee32bf118de5U, 0x3eecafb2bcd2ef6fU, 0xbc090f7c3dfcc809U,
  0xbe90c7313e994b87U, 0x3e8db0683d90fa01U, 0x3e386f403ef6746fU, 0xbc19b26cbeb190edU,
  0x3c986840be7c2e84U, 0xbddc56fe3edbdf22U, 0xbe5bc48e3dc65319U, 0x3b9fed363e936a05U,
  0x3f1086d93ea6fd4cU, 0x3e8efb3bbec3ef26U, 0xbd87aa95be130278U, 0xbf446d1c3bb6b370U,
  0x3e3e40a03e99f02dU, 0xbd516f993f142211U, 0x3ea665d93d2b6e78U, 0xbf6c075d3ee4274bU,
  0xbf5a74663ee2c0cdU, 0xbc728ad63c8b3ba9U, 0xbe2eb80ac01333dfU, 0x3db4b3a7bef8cfcbU,
  0x3e1401cdbd8a31ebU, 0x3f6694fe3f740468U, 0xbf38ae84bcd3a8f7U, 0x3ced818cbe1f200eU,
  0xbf06875e3d5f9780U, 0x3f0afa533ec5eb4bU, 0xbe5c5f943d7e6110U, 0xbe46fd8fbe0678f5U,
  0xbd1f075ebe9cef55U, 0xbd90adfb3eb92af6U, 0x3cf15a813e34097aU, 0x3e943194be07ca4eU,
  0xbb7a60e93ccb0701U, 0xbe3da8d63dca172fU, 0xbedcc7bbbea02434U, 0xbd4069e93ebf2018U,
  0x3ab1cc6e3f006303U, 0xc0349f3fbd2f20e2U, 0x3f701cbb3f69052dU, 0x3e0ed271bfc310c3U,
  0xbd85078fbee06ae8U, 0x3f2a75ccbd8f9a1fU, 0x3f2a824a3e6204ddU, 0xbc823eb2bd2edbb3U,
  0xbf084807be9e038fU, 0xbd37202cbec2d2b8U, 0x3e96176fbc24baf8U, 0x3e2ef4eb3e1778f8U,
  0xbebbaac33e3fbd63U, 0x3e27beebbcddf460U, 0x3f0ad1073d493b18U, 0xbe1a90ecbe729a1cU,
  0xbb38c95a3ece910cU, 0xbede3d07be29d66fU, 0x3e7b4eafbe787bf5U, 0x3ea14483bf4cd313U,
  0x3d0111c2bdd9fc2fU, 0x3c3321ef3f2a708bU, 0xbd5bd89b3e66c101U, 0xbe1cbbb73eb00f4fU,
  0xbd62cd453dac9d75U, 0x3f03d6f73e42ff0aU, 0x3d66bf793ec8b715U, 0x3e17d7cfbc2999f9U,
  0xbdb6f097be0f8aaaU, 0x3c9722163e86dc9bU, 0x3fa36fc2be2e7ba8U, 0x3df24f393f81ea0bU,
  0x3de07c633e9006f2U, 0xbce5c687bd60fe70U, 0xbf32d52f3d6845a5U, 0xbee7def3bf52678aU,
  0xbd1b87e13bb8a7dbU, 0xbfe1ad88bfdaf0dfU, 0xbec169cfbe5549c0U, 0xbe763929be8f1accU,
  0xbfd09730bcf9e1cbU, 0x3f5c88153f8bc171U, 0x3de05d753fb355feU, 0xbdb6bd8cbd831014U,
  0xbe548836be1aa417U, 0xbe3ee6ecbeabfce5U, 0x3cb1bb33bc462b19U, 0xbdb7eb393efa71e7U,
  0x3efe8205bbe89123U, 0x3e84b13db8c36fbeU, 0xbf19882dbf44facaU, 0xbb3610f3bf720952U,
  0xbe4db77fbf1067f6U, 0xbe89ec28bce0f753U, 0x3f0a05193f24b56aU, 0x3e96f65e3f028dc6U,
  0xbee641eb3c2fba39U, 0xbedc6ce3bd54d201U, 0xbee18145bf08f0e8U, 0x3d0806b93c9d6758U,
  0x3f32260e3ed63402U, 0xbc7bf9173f372afdU, 0xbd9fa18dbe1d03d4U, 0xbf5e4e32bf7239a6U,
  0x3eb1705ebed54317U, 0x3dfe7f6dbf1f3f8eU, 0x3ee02b2bbc99963dU, 0xbf0a1713be5f8e9cU,
  0x3c1bfb1b3f84b4c2U, 0x3f071dfdbe028a22U, 0xbf11d2043e5d3778U, 0xbf1315af3e55c772U,
  0x3d283e013c1dfe76U, 0xbecc85cd3f3585d5U, 0x3f968789be224aaaU, 0x3e5ba83cbd5fe6c4U,
  0xbe8c6eb2be915fd6U, 0x3e8d5ba3bdab00bcU, 0xbe09a55ebdc5c274U, 0x3eaf2e87bc18db82U,
  0x3e9a06703cac31f4U, 0x3dfe75343ee2418eU, 0x3e94c2ee3f3d43e2U, 0x3dbbe5a23ef77e17U,
  0x3e6dd11c3ea5cf89U, 0x3aa68a6fbe2f2bebU, 0xbf0ccf3e3d89a671U, 0x3e8b4397bf302433U,
  0xbc7abb2a3e60667cU, 0xbf6aadd3bf484dadU, 0xbe9e60943f43af97U, 0x3d73ebe23f0233e7U,
  0xbffe8d7f3c9ac54dU, 0x3f706fcf3f2e6cbcU, 0xbd075b34bf47cffdU, 0xbf7d497e3da10af3U,
  0xbee2258bbf36e2a6U, 0xbe81d264bf2c85edU, 0xbd87df393ea51214U, 0x3f131a9f3ecccb62U,
  0x3e2bf0853e7d0176U, 0x3d292768bd7bd3c6U, 0xbe987923bddc0395U, 0xbf6e8c963ea5b705U,
  0xbdc574443eeea00bU, 0x3fa531ba3c5c2a84U, 0x3d2eeef13e47c86eU, 0x3d8b932f3e4a08f2U,
  0x3efa725b3d3a73feU, 0x3ca99d9b3f02f6e6U, 0x3e06b05ebe4e4757U, 0x3c091104be7e80a2U,
  0xbe5135553f5c068fU, 0xbf51f706bedec5a2U, 0xbe1f6c9f3d107feeU, 0x3da5fcdabd6e660cU,
  0xbf2ae2b23ed3710bU, 0xbe91bb393ef4ae4bU, 0x3dd857b7bc1bb342U, 0x3f312ccc3e9ca809U,
  0x3e2f4aff3d057ebaU, 0xbf3150eebd3c82b2U, 0xbe72bcd7befc2f28U, 0xbd81064cbf4823eeU,
  0x3cf72dc0be6d2c3cU, 0xbed006c13f807ce9U, 0x3f55d14cbecbb502U, 0xbe9187a63c61a169U,
  0xbf1248b1bea6c08cU, 0xbf5885e8bf8ab9caU, 0x3e884641bf6d3e70U, 0xbee81e5ebf1c4ea6U,
  0xbe43fb5cbe02b87aU, 0xbf1ad01cbedb8ba3U, 0x3df1a91fbded58d8U, 0xbe9c7a01beda0be6U,
  0xbf1ddf10bf9e790bU, 0xbf9b2199be6de348U, 0x3d37049bbf21a45aU, 0x3db58752bf15fb58U,
  0xbf29d00bbdc6da37U, 0xbf96dc3c3d82ed2fU, 0xbf48d1e5bf47e524U, 0xbe51289a3e3c5342U,
  0xbec95186beb2b08aU, 0xbfceaddfbf1c7d01U, 0xbe8b1b74bf0e108eU, 0xbf16cc90bf9421e3U,
  0xbf75e402bed4277aU, 0xbf973adebe928bb7U, 0xbe1174d43d034fcdU, 0xbeec28f7bf4f8356U,
  0xbfa47877bfcb3b79U, 0xbf61f0bbbf3faa01U, 0xbf763db6bf1ec816U, 0xbe973f61beca72e8U,
  0xbdcfcf26bfe5bcffU, 0xbfd6ce20bf0c5c85U, 0xbf31712bbe23854dU, 0xbef2cb75bf5e52deU,
  0xbe7d8b15be7e4881U, 0xbbe48dfdbe0504feU, 0xbe148ff03d688639U, 0x3e1100e9be36257bU,
  0xbd8e0586be270555U, 0xbe515270bea03ccaU, 0x39c78077bd240525U, 0xbc194e52be816f3eU,
  0xbca9bf0cbe56e706U, 0xbe919b2abd434954U, 0xbdd7d602bdb09ceeU, 0xbe641e78be13bd84U,
  0x3d51e3fe3db29d6aU, 0xbe63e664be2af767U, 0x3dbb3f063d9b8ecdU, 0x3d9c047b3c7f1cb0U,
  0x3be3876bbe528a60U, 0x3d6cc6bebe750a00U, 0xbe9a8a78be7e5d94U, 0xbe0cdc45be9b2fc3U,
  0x3dba1e2d3d7d195fU, 0xbe9ded9fbe2ba4b9U, 0x3d7756393baf1a0cU, 0xbb27715e3c6cc984U,
  0xbdab5cb4be500b30U, 0xbdf9349dbdf2a9f8U, 0xbe2738dcbd53871cU, 0x3d6a8dc2be949eb3U,
  0xbe964006be565044U, 0xbe7758a6be580210U, 0x3d5e48babe77529cU, 0x3d8ed085be979011U,
  0x3ef535463d58e57aU, 0xbe14ad7c3ecaa9c3U, 0xbd51f54fbf427c30U, 0x3f9b3d0cbfaaa0f1U,
  0xbd5eab5ebec1a45eU, 0xbea915ddbe74147eU, 0xbee0cfdc3e420b3bU, 0x3c806462bcdfc808U,
  0x3e00fe8b3f529685U, 0xbe8084c9bf432278U, 0xbe4ba6de3d0c4513U, 0x3e924cd2bf88445aU,
  0xbfe2b41cbf4a4bb9U, 0x3f84cb05bdfd827bU, 0x3edff1f0be9f3313U, 0xbe18f6213d033699U,
  0x3d9b994fbf2d3090U, 0x3d67401f3d3e8d33U, 0x3d24808bbf1c7c5dU, 0xbe516502be98c5ebU,
  0x3f31f8b13e9d79d6U, 0xbe0205b63ef0a80bU, 0x3e3a777dbed6a7fbU, 0xbe6e02673f33d9b3U,
  0x3ed09528bfaf5abaU, 0xbff36f1ebead14c7U, 0x3de81b5c3e04487aU, 0x3ed575b43d1106feU,
  0x3e8df23fbe52ede8U, 0xbf6b4f96befbdb11U, 0x3f3f8b0f3e9c616fU, 0xbd0d02aa3e8627a0U,
  0xbe98c783beb82a54U, 0x3f55f527becf9ef7U, 0x3dd5b00abe9480c7U, 0xbeb3ca8bbce39855U,
  0x3e28d868bd19af42U, 0x3ecfa7b1bceed2a3U, 0x3e0e221f3f0970e8U, 0xbec3a3923f64c3eaU,
  0xbdbbd7bcbf7e9c1fU, 0x3eb69d99be23e851U, 0x3ec812253f1f0a53U, 0xbe4e339fbe591677U,
  0xbe9864dc3e4f92a0U, 0x3edd01d7bf0a14d3U, 0xbe458736bef963f7U, 0x3ee6e068bf6e35e2U,
  0x3e8e64803e5e16a3U, 0x3efc7e893f2e2b4cU, 0x3e6a39c5bef49eb5U, 0x3f09f9903e843ee6U,
  0xbf9d47c6bf6991bbU, 0xbecc6b1e3ec20e7bU, 0xbea84dd33f424970U, 0x3f0ec5abbe0b5fceU,
  0xbf05b228bf72dca9U, 0xbf5effc83f0f3360U, 0x3f09522d3f497077U, 0xbdea311dbf388e6bU,
  0xbed6cc2cbceb581dU, 0x3f66be77bf214b5aU, 0xbec5e12dbcf6e217U, 0xbf19da483e579640U,
  0x3d99b91fbf2d0f5fU, 0x3e81cdedbd8c4175U, 0xbdbd83babeece833U, 0xbe89ce963f087465U,
  0xbeeb6c5a3f85cb0bU, 0xbf03f86cbeb3894eU, 0x3e2a46e6bf5e1146U, 0x3deb6ab23ee95eb0U,
  0x3d9a2fcbbce22c61U, 0xbf359c73bea66d5bU, 0xbda5f0d3beec457bU, 0x3ec34dee3ef4bd19U,
  0xbe810ff9befc469eU, 0x3f226903bf6b9e8eU, 0x3eb57a793f02179fU, 0xbec68138be88ff87U,
  0xbf895361bf048d13U, 0xbe9d9865bfbb29ceU, 0x3a8b501a3ecc683aU, 0x3cf52fec3e21be25U,
  0xbf68ee80be5d663dU, 0x3f8c80753f25fe3dU, 0x3ee737c0beda2efbU, 0x3f18baef3ee47092U,
  0x3ead5ea9bf226047U, 0xbf23496d3dfaf6deU, 0x3e842ae73eb6c760U, 0x3f483887bee28ef5U,
  0x3ed96aeabf438e09U, 0x3f2961b5be8af6beU, 0xbca625003e3e8df6U, 0x3e91ede63ed3065fU,
  0xbe1a1c6d3e3124a6U, 0x3ea5d1febd4ad85fU, 0x3e2b41603edd0802U, 0xbd0d31103f1de697U,
  0xbf44217b3eacde24U, 0xbfae6624bed991acU, 0xbedd7780bf805a6bU, 0xbe260f743e48040fU,
  0xbe0198cdbf173bc6U, 0xbeca8570be268643U, 0xbd564ecebee33e29U, 0x3cc175b23e28ae26U,
  0xbc202d60be6c2f84U, 0x3f07098f3f7de988U, 0xbf25ecbbbcf113afU, 0xbca1d974be8e85cfU,
  0x3f198a933f6e4a8fU, 0x3c5e76ef3e14999cU, 0xbed29b36bedaaaa3U, 0x3e9172a7be03dd18U,
  0xbe9ccf01bc52d47cU, 0xbe291eb0beb3eda4U, 0x3e269378ba112f26U, 0x3e1136cc3e667262U,
  0x3e7e7c87be8d59fdU, 0x3f9d7c8abdcd42a1U, 0xbf03f263bf85dbf0U, 0xbe63801fbf4e87aeU,
  0xbf321b63bda2c085U, 0x3fa431a7bdcea0e5U, 0x3defabf1be97544aU, 0xbf383379bf4ae412U,
  0x3e995ddf3e38bb6aU, 0x3c1218ad3f696df8U, 0xbf36b81f3ece95d5U, 0xbd9275183f3241b4U,
  0xbf1533343f50a6c9U, 0x3f00f4d9bf29e9ceU, 0x3f2641a03ec60eb5U, 0x3ba73145be97875aU,
  0x3ec2b9543a891254U, 0xbe887e943e136f42U, 0x3e96455b3e66b7eeU, 0x3e9a9f5abedc3a46U,
  0x3d7c1a93beb7e575U, 0x3bd5eeb6bf36a174U, 0x3de4b92a3ebdf7ceU, 0x3e46546d3db267d5U,
  0x3eb0148abe2db05dU, 0xbf905ba53e0fae15U, 0x3db77b10bf3630feU, 0x3f2c43edbec3135fU,
  0xbf0940643eb85916U, 0x3d8aaf393e8880f8U, 0xbf4545f13eefe07dU, 0xbeeadad53f14622dU,
  0x3e1a5451be4ca569U, 0x3f2037e4bdefd4a4U, 0x3d4aa443bdcb5ddbU, 0x3f3bd61a3eff7a75U,
  0xbf3fe58bbedd4739U, 0xbe547361be36ed7eU, 0xbe8c870c3b913608U, 0x3d909c1abd913e46U,
  0xbfb10e6b3bf99c52U, 0xbf7993813ee8bd1cU, 0x3c74a6b43ed97c07U, 0x3d4418193ecf3448U,
  0x3e72c222be552a9bU, 0x3e87df143e056a47U, 0x3eae3dd1be84cdf9U, 0xbf3a4195bf548285U,
  0x3dd0cc41be4fdb24U, 0x3d86e4e8bd684eb0U, 0xbe0db8d93fb1c8bfU, 0xbe7ecbf7be208972U,
  0x3d7855323e78a89cU, 0x3dffa1d0bedae674U, 0x3e356939bfa98caaU, 0x3ddb16e83d8d5f64U,
  0x3e2bc93f3d8b5646U, 0xbec6b869bf96a748U, 0x3f42ded83db6d267U, 0x3ed00f6fbd6095c8U,
  0x3fad04a4bd3e651cU, 0xbde928dfbe975ffbU, 0x3e3b44d33c44520eU, 0x3e13bf8f3e1b9b34U,
  0x3e020377bd876a11U, 0x3fb6ecfbc0075801U, 0x3ea41e6ebf7ce78dU, 0x3e9c97c53ea29bfbU,
  0xbb0b7051bf37666eU, 0x3f219a7b3c9c761cU, 0xbf0f0193be55c919U, 0x3b923557bea4929bU,
  0x3eda64c6bd0a0510U, 0xbc8663b53ed18a4fU, 0x3e52eeb3bf8e17d3U, 0xbe87c6c93ee5d44dU,
  0x3f5587f3bcd1dca7U, 0x3eb601273c9b8999U, 0xbe99179e3ddb1e56U, 0xbea50dbebde9955bU,
  0xbd9dc25ebd25b38cU, 0x3e4208963ec2e245U, 0x3e85f0823e68aa4dU, 0xbf47398dbd14350fU,
  0x3e05cb4a3f5745bdU, 0xbda4d86d3f1dd6acU, 0xbe6ee435becf96c2U, 0x3e83fad9bf608664U,
  0x3eb2b9023f096b97U, 0xbf5136d83ee7d97cU, 0xbf11c150be7ad0ebU, 0xbdc2d6a33e6416d7U,
  0x3fb924553ebfb1d9U, 0x3e51c827be487e4eU, 0x3c61273a3e50d69fU, 0x3f5a1da8bf54f027U,
  0xbeb9b3713e4da501U, 0xbe871c363f939bc2U, 0x3e27815bbfb831c7U, 0xbfb3b2043e31ac80U,
  0xbe9171083e5056feU, 0xbe3b37773ec589dcU, 0x3dc7520fbee80ba2U, 0xbc417645beb79247U,
  0x3e9a06123f72d4f1U, 0x3e850f3abef71c52U, 0x3e8787e5bf23079cU, 0x3fb322e8bf08bafbU,
  0x3a1182b1bf0e4fe2U, 0x3d21e72c3d7eae79U, 0x3f0de23f3f1a2a9dU, 0x3e0e62d1be4a480aU,
  0x3a82b742bedf4018U, 0x3e9fee8bbd61e297U, 0x3ccff186bffed11dU, 0xbe7685213e82bf11U,
  0xbe8b21613e00bb28U, 0x3d21f245bd2f9471U, 0x3e9114fbbebae020U, 0x3c9c0af7bdd5381aU,
  0xbf213462beab8dc6U, 0xbef2ad8d3f393970U, 0x3db553293eab8d91U, 0x3e070187bef212bdU,
  0xbee3b9afbf58fa18U, 0x3e948fa43eb69699U, 0x3e753ddcbee6c834U, 0xbf37781b3e093163U,
  0xbf3a8d1ebe815e7eU, 0x3e9306eabe90df1dU, 0x3e8ca3963f3298c6U, 0x3eb3ad39bf15b5e8U,
  0xbd3c45b4bd19e403U, 0xbe4375b2be6610acU, 0xbe4dd3ddbf293e85U, 0x3e3d59073d301142U,
  0xbec5a2c0bd0c76c7U, 0x3ec608d4be9778b8U, 0xbebe3fd1bc8e811cU, 0xbe1f1869bf509579U,
  0xbf4b0823bf1aa710U, 0xbf0276ffbe1d2d90U, 0xbf922b633ea98ee4U, 0xbcbfdfc9be182014U,
  0xbda17fe73ee49f27U, 0x3dec488c3f629223U, 0x3d873d5bbc7a7aa9U, 0x3df1e2d5bd143b11U,
  0x3ec2ed013f2f6e44U, 0x3f395236bd03f083U, 0xbe85f5633f38278cU, 0xbeb0afd6bed93246U,
  0xbefc2bc9beaac502U, 0x3f026745beaf816bU, 0xbe8b11eb3d9d09c3U, 0xbf0a3f08bd588afdU,
  0xbff81c45bdfe6ccfU, 0xbf50cfc7be2f58c0U, 0x3d920c1e3e814ed3U, 0x3dfce4873ebe745fU,
  0xbdaa1688be0a509eU, 0xbe4a41603da40b25U, 0xbdd8ae3a3f5f446bU, 0xbe7c2eec3ea7ca08U,
  0x3f53b2cbbf1e5577U, 0x3ecf0da5bf199728U, 0x3e39a4fd3f39d303U, 0x3d9c582d3e807ef9U,
  0x3ee5fa94be8f797cU, 0xbe9e73cabef23cddU, 0xbeec4a1cbee59e6eU, 0x3e643de33f6f9308U,
  0x3f4599063f6cd982U, 0x3e309e7abe0fd6b5U, 0xbd1182523ecc68d3U, 0xbe9715b83d7f96bdU,
  0x3f0190393e5c4e1cU, 0xbf1680dd3e1ba830U, 0x3d6ce86f3f2b7068U, 0xbe9aa50c3f66812fU,
  0xbe51c271bd3c62b1U, 0xbfed34873f19dcb3U, 0x3e9e3835bd406dc0U, 0xbdd0cb223e7d2e37U,
  0xbec875c3bf487569U, 0xbcc6849abe4112e8U, 0x3db9368e3f74b8b1U, 0x3db4dcd1be2d0161U,
  0x3cad95ed3e74ff88U, 0xbf9256003d5c5050U, 0x3dd383ce3dc67c14U, 0x3bd42a8cbe6bcb60U,
  0x3dcc3b36bf3c992fU, 0x3d4543cf3f24c5bbU, 0x3d4eb2ed3f5c689bU, 0xbf0cda9bbf2d7f27U,
  0xbd70f0fb3e8d8d09U, 0xbe8fb810be2090f7U, 0x3e5930bc3c8b33beU, 0xbeb18db43dcc2e2aU,
  0xbe201729bcc9b270U, 0xbeab05093fb993f1U, 0xbe4d26583f3c4760U, 0xbe380a8abd2c735cU,
  0xbf80ecd43e8cd9a5U, 0xbed9d699bf0edbc8U, 0x3eb6dc3a3e0cb75cU, 0xbe94e967bdbf28edU,
  0xbe81b27e3ea69855U, 0x3e49680fbcc27cf4U, 0xbf039b993f077b70U, 0xbe7994dfbf77d910U,
  0xbe37043c3d4c536cU, 0xbf29a13cbf9139f8U, 0x3ea692ba3ebe849bU, 0xbea5bf633e12e43bU,
  0xbe0fd6c4bf82cd93U, 0x3f251c083f132d71U, 0xbf3397a93d1b129bU, 0x3eae73ed3e6b0ea9U,
  0x3ec56ca03e9a6609U, 0x3f4595f8bf0546f4U, 0xbd9cf6003ddb3396U, 0xbdd269dc3f0e2acdU,
  0x3ea818bb3eb1009bU, 0xbdf77a4ebd9cd397U, 0x3ec4810d3ebca854U, 0x3e557b4f3f6de011U,
  0xbdb6f346bf385a3aU, 0xbf314611bd1cb04eU, 0xbdfe5d56beabffe9U, 0xbef48ec4be356b90U,
  0xbf2a74aa3e08625bU, 0xbf61fa58bd1199e5U, 0x3ed091fb3e700e14U, 0xbf35c74ebf02ab21U,
  0xbeccdbc63f0351ffU, 0xbe6a52a0be992a96U, 0xbf057cd5bf119f1eU, 0x3ee15c583e87d5b0U,
  0xbe31626f3e40e9b1U, 0xbdf5674bbdff56c6U, 0x3d49386dbf12a653U, 0x3e9c8bd8bf8d942fU,
  0x3d1ec0fbbe253ac7U, 0xbf5839f43f41596bU, 0x3f12c3513ee26047U, 0xbe5ba0843e11f435U,
  0x3f59c38f3ea343eeU, 0xbe5a10e33f20ad51U, 0x3e5d9c71be986412U, 0xbedc10b2bd217d8bU,
  0x3f8dbc923eb121beU, 0x3eabb7c7bef2365bU, 0xbe91787a3eccee77U, 0x3e190fd9bf0c8e03U,
  0x3f03a6603f3a486fU, 0x3d90ed2c3d8bfa66U, 0xbeabe7013f1fba40U, 0x3cea0f37beaa5ec2U,
  0xbdafdbe6bf4bcf8cU, 0x3ee32bdc3d386ef2U, 0xbecec5d63c668d77U, 0x3e5925263e1cc196U,
  0xbe775b76bf86211fU, 0xbfc8c54d3e6a3f06U, 0x3e828973bef6da46U, 0x3f306b1dbfd7f03dU,
  0xbe1cddb2bf359473U, 0xbd9be410bf739455U, 0xbf2270d63e86a574U, 0x3d6ae607bf28bfe6U,
  0x3d4ef573beb4f4baU, 0xbec1e1a1bc899cf8U, 0xbed6ac863eff1152U, 0xbe4be4603f4eeb4cU,
  0xbd6b969a3ea5b34dU, 0xbfd6d30bbeda873dU, 0xbd9cf3073f2cf369U, 0xbd8943da3cab0396U,
  0x3f355c9bbecf41a6U, 0x3e6455b63f3726e3U, 0xbe3c40ddbef64288U, 0x3f0abf72bea05ddfU,
  0x3f412d49c034dd4dU, 0x3f398f513eeba9a4U, 0x3ef13f88bf3f790fU, 0xbdfa52f93ed745e5U,
  0x3f931cf8bf4ba268U, 0xc009341d3e3d300bU, 0xbeac30ef3f2a4345U, 0xbeb755753f153c7bU,
  0xbd671c4cc00bda4eU, 0x3dfc9af1bf3b0ceeU, 0xbefd5e193ef0ddebU, 0x3e9e40cc3f42b9ecU,
  0x3eca83153ebb9c92U, 0x3f1714f8c034c3a4U, 0xbf1b567fbd945d39U, 0x3f6eb356bdca7043U,
  0x3f8a918cc005e1afU, 0xbf3d6848be49c27dU, 0xbfb7bda0bf33fd7eU, 0x3ec691403fca9bd4U,
  0xbeab1309befd93e4U, 0x3daa4f5cbfc4ccc9U, 0x3e8bab10bf2a140aU, 0x3c4b47863e8b081cU,
  0xbeb3762f3faa07a7U, 0x3e64afc13f9939b1U, 0x3e7f8293be9711b8U, 0x3d266c973e0bb6fdU,
  0x3efaa1a43eaa6f84U, 0xbf637e553d23ffcdU, 0x3e383e8d3a452058U, 0x3ebb914bbc8f89f4U,
  0x3e89df2dbf84c26dU, 0xbf1dc1a53cc74fa1U, 0xbdb5f03dbf862373U, 0x3ccef65d3dbc9c41U,
  0xbf30a0533dc2b0d2U, 0xbf0e7f873f088e5bU, 0xbe85fe2dbdf0f7a5U, 0x3cf8ca0dbf894f23U,
  0xb8359a00be033e43U, 0x3f148b6fbe20397aU, 0x3ec1b1a83e103303U, 0xbd9066613e88401eU,
  0xbe40b3353f72edfbU, 0x3d83b0e03eed3d6aU, 0xbecd49d53e466a4dU, 0xbf3e5cf33eeeef63U,
  0x3d3c3464bf695d6cU, 0xbe7ac2c0bd97e3aaU, 0x3d2126cc3e617395U, 0xbd8134963edca124U,
  0xbe5ec6333edc32bdU, 0xbeb88f92bec80fb2U, 0x3dd02d543f876333U, 0xbeac41bb3ed785deU,
  0x3f49dcec3f179f8aU, 0x3d1e99d83f2b834aU, 0xbdc3a6cd3f012ccdU, 0x3d57eec6bc93b687U,
  0x3ed717003e9e953cU, 0xbe6eec763f4ab346U, 0xbeb83b72bea3b639U, 0x3f34b8c13e00fb6aU,
  0xbfcd619cbf428366U, 0xbce82f203c12aa40U, 0x3e30f910bee7bdefU, 0xbeef43eb3f248a16U,
  0xbf3e0a26bf0a1832U, 0x3ed2f88fbf487ca8U, 0xbe88818dbebbd83eU, 0xbf10cc5cbf325a89U,
  0x3e91a7003ce5ceaeU, 0xbee43a233e6688e4U, 0xbcfb18643ec193f1U, 0x3d2e66433e9cc416U,
  0x3e209a8abe95b828U, 0xbd349f4cbee4f9f6U, 0x3d680458bf3bbef8U, 0xbc37820ebf5b2339U,
  0x3e8a3a2dbc256b60U, 0xbe980edebe02dea2U, 0xbd390bdd3f5c30e7U, 0xbebac547be8a08d1U,
  0x3efca887bf8bec39U, 0xbdef89cd3cdfcfe2U, 0x3e7a53af3fc7e312U, 0xbeef1c453e08a39dU,
  0x3f111fc1becd5942U, 0xbcf5beb6be7e7479U, 0xbf2167debd8785adU, 0xbe5357a2bec58db4U,
  0x3e99c973bf0a169bU, 0xbecbfb8e3f4d251aU, 0x3efbd7573e7f097bU, 0xbf15a1ad3ebc09c4U,
  0x3f0f4503beddbaa4U, 0x3ef86214bd36d367U, 0xbd9df8c3be7623aaU, 0xbf47051cbef96381U,
  0xbea65e47c029546cU, 0x3f89f5713ef8bd1eU, 0xbe5c87a3bf0ba38bU, 0x3f3e70e2bf4420f8U,
  0xbe34603d3c7db062U, 0xbf2da704bee526f1U, 0xbe0796eabe774e0fU, 0x3ee036aabe6e21d4U,
  0xbefbdace3dafce2dU, 0xbe3884c73e36f5aaU, 0x3e41e6223dc47745U, 0x3f86fd80bf0353d0U,
  0xbefa7982bf0255d0U, 0x3e47892e3e843c8bU, 0xbe94079bbf18392cU, 0xbe4c12a4beea3ba6U,
  0xbe0f4dd73e23785dU, 0xbc9cc7e63ea89432U, 0xbeaeddfac02a9f74U, 0x3f86e3323d6e54f1U,
  0xbcb6089d3e6f3e61U, 0x3ebb30bd3e394c1cU, 0xbf0090703f2e6bf2U, 0x3da469883f58c52bU,
  0xbe5eb0463e060097U, 0x3c0d562ebfd562b0U, 0xbf0c91313f01a941U, 0xbe9b0aea3e2ce439U,
  0x3d0afc0c3d11f7d8U, 0x3df9f8b9becff4edU, 0x3f933f5c3d6a856eU, 0x3f27042abd02bb0aU,
  0x3ecb57f6bcdb3e26U, 0x3eca7c47beb4008eU, 0xbf33ea563c8e2df6U, 0x3dcc4c6fbf5b10d7U,
  0x3d6aa519bfb4d26aU, 0xbd3dd4dfbf27c295U, 0x3f2afe83bf716f86U, 0xbeec3eb6bf3f79e2U,
  0x3e477b223f1c98bcU, 0x3edcd003bea34d35U, 0x3e9d1c8a3e2a1981U, 0x3f5b04cf3e9d7c22U,
  0xbddc8d63beffd2eaU, 0xbea3384dbf1810adU, 0xbef8b0c8be1f6185U, 0x3e5b3dbd3edc62faU,
  0x3ead4fa73f4be235U, 0xbe2ec5dcbed0715dU, 0xbd82e3e2bf304cdaU, 0x3f14d30ec004257aU,
  0x3d984e453ecfde5dU, 0xbe9bdb413e67c925U, 0x3ed98c533e038d2aU, 0xbec0b4593dafea10U,
  0x3f110ccebe5e6a02U, 0xbfa7571ebd9a90eaU, 0xbccd33a73ef4aa31U, 0xbf224efbbefccc0bU,
  0xbf4e3c8ebde3fe11U, 0xbf16a458bebe8838U, 0x3f81cff3bea65aa3U, 0x3e309d5ebe8b2bd9U,
  0xbe929c5dbdde2db2U, 0x3f259707bf6242a1U, 0xbe6109013f1ba934U, 0x3f0dc21c3efc5e29U,
  0x3f1778043e9f910cU, 0x3f769202bef78841U, 0x3e346fcf3e27fd78U, 0xbc33628dbca625dbU,
  0x3bb694713edc0dd1U, 0x3ea748fcbf3013d9U, 0x3e9d8ff0be7f23ddU, 0xbecd4bf83e5fd2d3U,
  0x3d2630aebe35dfe2U, 0xbe7c9c7a3e924d29U, 0xbe0e93d8bf02224dU, 0xbe869881bee32c63U,
  0x3ca413643d127ac6U, 0x3e92e8a4bee84eb0U, 0x3e7ece6c3e84b268U, 0xbe2d5cba3e425b55U,
  0xbf909fa1bf03eae5U, 0xbf595ae43dcf4f67U, 0xbed6ee3b3f728c37U, 0x3e799891bcede961U,
  0x3e8390623eb5d035U, 0xbf4f59733facc420U, 0xbe9270b2bebc0e35U, 0x3d61ded0bea69fefU,
  0x3f28065cbe8f7144U, 0xbfa854773d6890b3U, 0x3c6bee75be95520bU, 0x3f6c03473ea7eaefU,
  0x3eeabdbebccd2ea8U, 0xbf96af833d5df99fU, 0xbe5ce4883f5f0649U, 0xbf7413273f267a62U,
  0x3cdda5e63ea4107bU, 0xbf5a2827be8df549U, 0x3dcf84b1bd60370dU, 0x3f191ca43ea6efedU,
  0x3d300db43f0d2e21U, 0x3ebc5bfe3cad91e8U, 0x3eccfa76be6c32cdU, 0xbef94bc6bf8fc276U,
  0x3d229f27bf90db37U, 0xbdb340e3bd2049fbU, 0xbf7b2829bd57de2eU, 0x3f06baccbc164bc9U,
  0x3e85db253f17f3d0U, 0xbe35e8883e7ab09bU, 0xbe03a6b6bd94d15cU, 0xbeb92be03e8a1b6dU,
  0x3ee2b0d7bf8f4f75U, 0x3e4c24823f1a9fd9U, 0xbe90f4413ec13ecfU, 0xbd888b723f1d01f6U,
  0xbf30b56dbc93c56eU, 0xbf209a4bbf9fe213U, 0x3ccb132cbc04b84dU, 0xbe5407eebdd7b69cU,
  0x3f1f1ff83e5b9c44U, 0x3dcf74a43e88875eU, 0xbe1f386d3e4d46d9U, 0x3e99cbd2be43b69fU,
  0x3e34e7833f66ff7eU, 0x3e15d9a43eb76717U, 0x3e94c24e3f309ffdU, 0x3f327c96be7c49dcU,
  0x3e41af18bd954436U, 0xbf87e28abe95fac6U, 0x3f0119cdbf2305cfU, 0xbf8dde6dbe94439aU,
  0xbe70447f3e3a42deU, 0x3df0bce7be81a30cU, 0xbf6167babd8284b2U, 0xbf888e8c3f1ff051U,
  0xbeaa3fe6be5501baU, 0x3e504943bf8827d9U, 0x3e7bb5023e4884e7U, 0x3e1d7f7e3eaa5567U,
  0x3e9486783ca8a3d2U, 0xbd7d39363f13c661U, 0x3b8321663f2dd838U, 0x3f4175b6bdc533ffU,
  0xbe416ad2bea00adcU, 0xbf59211abdbc8792U, 0x3f0dc6df3e5d08edU, 0xbd31ffc6bec75e5eU,
  0x3fa08b7ebf84df74U, 0x3c73420e3e617602U, 0x3d8708cd3f0074c9U, 0x3e8ba284bca30fd1U,
  0x3efce80bbf1a41a7U, 0xbfdc21d83d906268U, 0xbf05fad3bea70165U, 0xbdf0315c3d301fbbU,
  0xbea17cccbdf87991U, 0x3e7c88833f50c2d8U, 0x3f30ae6abf1b6f7bU, 0xbe9cd03abe9f9ab7U,
  0x3eb1dea8beb487d3U, 0x3e49999ebe848f0aU, 0xbefd1bf3bdefce74U, 0xbae906d0be81f240U,
  0xbea0b9383e69340eU, 0x3f0061b73f30b70dU, 0x3ca8e3e33f06c728U, 0x3ea3be2d3f369e3dU,
  0xbec363c83f91bea8U, 0xbf760ec1bf09ee7eU, 0xbf1cfc283f1638acU, 0xbed466f43f0355d5U,
  0xbe98d4e73cb84d9fU, 0x3f3bfd063e88f458U, 0xbe54a6aa3fabeaa2U, 0xbe552576bfb5d4d7U,
  0xbe8033cc3e5846d1U, 0x3ea7aa19bee9c52fU, 0x3f01ff633f5db428U, 0xbd4203383ef0311cU,
  0xbe0607623e4b541eU, 0xbe5b8d88bf024cecU, 0xbf9e8b3d3f194556U, 0x3ddb6879bf44aa3dU,
  0xbf901ba9bec2d593U, 0xbdef1ef33deadb15U, 0x3c5743a5beb56d5fU, 0x3e16dc0b3ea0cc1dU,
  0x3de19b413e9bc5a1U, 0x3e0b7655bea9df29U, 0x3e408195bf4162a6U, 0x3d5ba47d3f178a6fU,
  0xbed5b5653d2cb69eU, 0x3f4973123e403a99U, 0xbeb1bfd93e18c6f5U, 0x3d4450aabe22e80cU,
  0x3d3f94c63efb991aU, 0xbe03d33cbe209708U, 0x3d976383bf05f8adU, 0x3fefcf643f554ebaU,
  0x3f03f919bf4780d7U, 0x3de7a866bda024c1U, 0xbf7e7db43da66725U, 0x3e29768a3ddcee59U,
  0x3e2c3c4bbe8f9820U, 0xbf4119023dbedb54U, 0x3df4423bbdd8e738U, 0xbec5b709bd8deaebU,
  0x3dd88d713dc800dbU, 0xbfcc9ffdbd69d8f2U, 0xbf0fa5e43e9f2093U, 0x3d2a4a1abe4626a4U,
  0x3f424828be930394U, 0x3e6a9dad3ee97298U, 0xbf0cd3323d204b4fU, 0x3c1a6b5d3eab4971U,
  0x3e8a1ac3bf4adfccU, 0x3f8c42333dd7b76dU, 0x3ed4f6e83d6d20daU, 0x3ea50527bdaf3455U,
  0xbf02d5f13e5570dfU, 0xbf575424befa9459U, 0x3f05f72d3f76fa0bU, 0xbe61f702be3e3d6aU,
  0x3e82a638becd1dd8U, 0xbfb6c87c3ede9b3cU, 0xbfa3f3c0bc19b222U, 0xbc302f703e12ebeeU,
  0xbecbf8e6bf596e71U, 0x3dd46c183e959275U, 0x3ef105d5bdbcd7e1U, 0xbf0b8a893eb6eaf9U,
  0x3e9d762fbf9740a8U, 0xbd3f0664beaffbfeU, 0xbe9707993e8702aaU, 0xbf3d89a73eba10e6U,
  0x3f412905bf938b10U, 0x3ec97601be34507cU, 0xbe5723d23cf9e16fU, 0xbf10be593e8c9376U,
  0xbb070b583d2354b4U, 0x3f617c473fb4b77cU, 0xbf4deea4be37ef40U, 0xbee2318bbf6bad79U,
  0x3f224de13f017529U, 0xbeb82a7b3ecd76dcU, 0x3ee1a5133e7a87d5U, 0xbf2e69723fa46731U,
  0xc0513539bea620e0U, 0x3ecc0523bf526d6dU, 0xbe6541e5bfa08704U, 0xbed5dec13f178fe5U,
  0x3d72a78abf8e0debU, 0xbe0416b43ee4da19U, 0x3cf37b833e9d2839U, 0x3da188efbf5ff60fU,
  0x3d694824bec49f64U, 0x3f487c84befe35e6U, 0x3e5dc6d4bf893667U, 0xbdccf821bfc45349U,
  0x3e2d79473f0a755bU, 0x3ef0545cbec16c78U, 0x3f26ec48be9aebbbU, 0xbf4667bc3d02dc76U,
  0xbed3b4c43f08446bU, 0xbcfb75ac3dc6d8c6U, 0x3e9f97f0be92149eU, 0x3cdf7bdf3f09a1b8U,
  0x3e90a6353ecdbf30U, 0x3e8f628fbe3cd171U, 0x3e088b2f3e5fb076U, 0x3e856e0cbeec4ff8U,
  0x3e9c1b7fbee77c4bU, 0xbf07fa0bbea254a6U, 0x3f0440e83f25b510U, 0x3d721f5ebe95792fU,
  0x3f00ed003edd6e11U, 0xbf76a6383eeca7d1U, 0xbe74cf3dbee9eff6U, 0x3e21845bbed65e98U,
  0xbfaec7873dc25044U, 0xbf22ce80bf27b445U, 0xbe8ed7f43e83ab40U, 0xbd4739e93cff3c62U,
  0xbe4ee2d9bee2e4e8U, 0xbda34cc13f305b3fU, 0xbf102e073e214389U, 0xbe846ca23f7ce1d4U,
  0xbe6f0e90be9186acU, 0x3dad425e3e35e23eU, 0xbe829b49bf1717a6U, 0xba723a08be7b7d07U,
  0xbd7fb0c2bd443ecbU, 0xbef34cd5bf95423cU, 0x3d89eb5e3f1644bdU, 0x3f394f373e834454U,
  0x3e820e7bbf8d6826U, 0xbe793871bf84f3a5U, 0x3eaae75f3e9b7255U, 0xbf9016eb3f13bccbU,
  0xbe5ee305be9b8767U, 0xbee470f43e213a2fU, 0xbf13c31c3f576a3cU, 0xbe943ac33e8b52f4U,
  0xbe0436ccbf5be7b7U, 0xbe8d3bc33e221d72U, 0xbf616610bf971729U, 0xbe8dfe7bbec6119bU,
  0x3f5dde7abc562ebeU, 0xbfd32a78bf62a355U, 0x3ef6fc41be1e390eU, 0x3e65079fbe0f9e6eU,
  0x3f87be7f3d3f829fU, 0xbe3bac75bf3e6263U, 0x3eb9ee8c3d273e0dU, 0x3d43f64e3f0131c5U,
  0x3f20138fbe46b328U, 0xbe8390363daa8259U, 0xbf8138503f0c2251U, 0x3e8b4e783de07ac9U,
  0xbe47dfd7bf1dd283U, 0xbf43610cbea7475bU, 0xc0121cfdbf8a0748U, 0x3f84dd3dbfa9023cU,
  0xbf47ede33e9be93aU, 0x3f19d780be330d53U, 0xbf17b7313ec058beU, 0xbe87e96e3ee2060aU,
  0xbeb60c6abd5fbafbU, 0x3d877b3bbf41b2c1U, 0x3d15c5f2bf20728cU, 0x3db27f6a3e8b7ca9U,
  0x3eb2b8d3beb97f44U, 0xbe9911083e0b44a9U, 0xbf061d5cbe3254c3U, 0xbe8e5cd03eab6890U,
  0x3eba564fbe6c6cecU, 0xbc48efa7be89c8d2U, 0xbf3b7e2f3f1c5f6eU, 0xbe2eca12befdc9bbU,
  0x3f2b6c2c3e67adacU, 0x3f33bddc3eb48ca7U, 0x3ed2c58c3ece87f3U, 0xbe2681053e48ade5U,
  0xbf045dc2bdd21d94U, 0x3f36e12bbf0c66d9U, 0xbe9f32123f085336U, 0x3cd5c979bd9b92a0U,
  0x3ec4c84f3e55f3c0U, 0x3ee24f343f9023dbU, 0xbf110a8b3f1a8152U, 0x3e4a5ff4be67b22cU,
  0xbea7f462bd001f70U, 0x3d88d48b3d78ae3eU, 0xbf28f2e93e7b860eU, 0x3f1a8d243f24003aU,
  0x3e52b3d93e83afe4U, 0x3ed4d5853dcc14bfU, 0xbd64d90ebfa1abd0U, 0xbf60fe2c3e8d7333U,
  0x3f195b50be6c0493U, 0xbc34541a3e7265d5U, 0xbf0116c4bea3993cU, 0xbf105e7fbdaf6c75U,
  0x3dce181dbecc436aU, 0x3e0d640a3eb3182aU, 0xbda8636bbf5399f2U, 0x3f3749b33edd301dU,
  0xba25043dbea8e375U, 0x3e7e58633fd4c475U, 0x3f0ea997c007b0a8U, 0xbe7bbeda3f7a3052U,
  0x3f02c8aebf1bd215U, 0xbf5090bc3dc542b7U, 0xbd1992ba3f0505f7U, 0xbf31f8dbbe29952dU,
  0x3f4928f93e006e23U, 0x3e9d24f4bee8f6d4U, 0xbce18afebe8fba7fU, 0x3c9dda6abed63e63U,
  0xbe2a3f0d3fac1cb2U, 0xbe17379bbf4a215dU, 0xbe040624be64e784U, 0x3e100fb23f0fe26cU,
  0x3df4d949bf761e7dU, 0x3e9cb9babe2595cfU, 0xbebeed08bf4d4371U, 0xbe19c93fbee96c97U,
  0xbe144b81bf46c25fU, 0x3dc54168bded783cU, 0x3e2d2c42bf03950bU, 0x3f3738153e89c059U,
  0x3f83e42fbf31a5e3U, 0x3efa695bbe14e75eU, 0x3efc5747be0b9b4cU, 0xbd3e2f76bf1e3cb9U,
  0xbe497442bf74759fU, 0xbdfe3ff33d4091ceU, 0x3c87bf8bbea69044U, 0x3d29e1dbbca184bfU,
  0x3f5d924bbe9e986bU, 0xbe3818d83f9cc139U, 0xbed477b83ee458dcU, 0xbe08ba5cbf0f3a75U,
  0x3f0309053efdb03aU, 0xbf0b5cb5bd93fac2U, 0x3f2e68943f535121U, 0xbf507159bec0a5e0U,
  0xbf29684abee0ee9cU, 0x3ea2d2103f0103e9U, 0x3e1442bd3e1a825cU, 0x3db195b5bdd639b8U,
  0x3f0e8468bf954752U, 0x3ea0ed33bdbc2e84U, 0x3e1e961cbeb75e82U, 0xbea97fa73e94f958U,
  0xbd2db718bf8fb455U, 0xbe1c20a1be2a3637U, 0xbdc29ec2bded91c4U, 0x3f5515e23daf3fffU,
  0xbdf97e7e3ec79026U, 0x3fa73fc53f42cfeeU, 0xc016c7ea3e75d8c0U, 0xbeaaf7d3bec9d1c9U,
  0xbf0fd7d8bf067da2U, 0xbeccfeccbfcb5787U, 0x3f221e53be64d837U, 0xbd738a453ea715a6U,
  0x3e987ce7bf40157eU, 0x3dc1bc97bd9cd2ccU, 0x3da2a9c73f869542U, 0x3d3312fd3df0df82U,
  0xbf17a8843d0b0cf5U, 0xbdd4990abe5891a7U, 0xbd3f8be03d164371U, 0x3c1cc9ffbf35ea65U,
  0xbf292736bfa99968U, 0xbe5c1c213f0fb1ffU, 0xbc905b383f57cff7U, 0xbe4232e13f16582dU,
  0x3eacd8a43d6f4c53U, 0xbf9907e83c64130bU, 0xbe06e95e3f23c6c5U, 0x3d85d34c3fd07fb6U,
  0x3d8d1fd73f0138faU, 0x3f49c0f9bea649c0U, 0xbe8be220bd06928aU, 0xbd340706be1e49a8U,
  0xbedd1cb4bfbd3b3cU, 0xbedf285fbe74037dU, 0xbe4b1e163f1ada58U, 0xbebe8ae73e25e38aU,
  0x3e5516903ca4992fU, 0x3d3ddd1d3f342ac3U, 0xbe8aeeb83f3c5251U, 0xbe923464bea4723bU,
  0x3ed624b53d2e72caU, 0x3f572503bed18b2eU, 0x3f02081fbedcd7fdU, 0x3e2447e6bf420701U,
  0x3c060b50beb12946U, 0x3cd1f09dbc26f595U, 0xbdc17661bf1e46f3U, 0x3f827353bf2ccd29U,
  0x3d91206ebe847196U, 0x3c99edc8bf9b7789U, 0x3db897553f8640a5U, 0x3f0c5d593f064358U,
  0xbef59b0abf46f2f4U, 0x3effb847bf8ed1aaU, 0x3ed53cc73e5cfc31U, 0x3f3937a83e869cfbU,
  0xbc59850cbe2696eaU, 0xbf2124363f13c584U, 0xbeaf10753cc0e326U, 0x3ef0578f3ed5cc84U,
  0x3e2fae50bf222127U, 0xbf29e874bd07fd66U, 0x3ed197cbbf05621fU, 0xbe1e3eb73f4753d1U,
  0xbee92a48be922599U, 0x3f1de1273e459e7fU, 0xbf60f37fbced242dU, 0xbf73bc7dbd81c5f8U,
  0x3e68405dbe10c4a1U, 0x3d801e6dbf029194U, 0xbd970fc7bd9a86b5U, 0x3f064395be734c54U,
  0x3f44e8643f587e2cU, 0xbf489846bedff086U, 0xbea0b544be27b85aU, 0x3e8a5615bad36e6fU,
  0x3f5b07803f6d822bU, 0xbf8a1a643e957b03U, 0x3f7b915dbee321bcU, 0xbf0600f2bcec2ac8U,
  0x3f842ce6bec76353U, 0xbef3b7223eaef14aU, 0x3e5cc0be3f0d5f8cU, 0x3cd508773d603e95U,
  0xbe1015f8be73a7b6U, 0x3e8212e4bf42bea1U, 0x3ef94de9bdbd58d4U, 0xbe9db41fbf34ef40U,
  0x3eadba80bf131f78U, 0xbe4f1767bf15a90cU, 0x3f3a4e123d42a446U, 0xbed963803fc80b6bU,
  0xbe5bd868bd9f7e37U, 0xb8f051e03ec13705U, 0xbdef4832bf6d13f0U, 0xbe9dd140bf36eaf6U,
  0x3e06ef79bed84c2fU, 0x3dea303cbe205332U, 0xbd1abd1c3eb38101U, 0x3df89b373f0740bfU,
  0xbf12d9403e80c354U, 0xbed65364beb7000dU, 0xbff229aec002a26fU, 0xbedc3aa8bf8a8784U,
  0x3defb1e2bdffe920U, 0xbf72a5febecb9a7eU, 0xbd16feb9bfcd330fU, 0x3ed5d4723db36e01U,
  0x3e90161ebec83f07U, 0xbee8123cbe9ecd78U, 0xbec3ce4b3d9c4831U, 0xbdfe4297bf30c168U,
  0xbf2cd35ebe54da8fU, 0xbe9e82b6bfbbc0f8U, 0x3ed97a653f02f285U, 0x3ed2e3db3f9d2759U,
  0x3e8dc7b6be602bd0U, 0x3f13bc193d2ee82fU, 0xbe929094bf08b00eU, 0xbe716c73be2fac36U,
  0x3d1797dd3ea5525eU, 0xbe8f9d2c3d4402b9U, 0x3e2cc6323e1945bfU, 0xbf0f0e8ebf2c7ffbU,
  0xbfc7777abea1d286U, 0x3ed6d9443f451dd3U, 0x3e47d9aabe459813U, 0x3eaacc963ec9321cU,
  0xbeee796cbd48b1c4U, 0x3f20663f3eb73c11U, 0xbedbd3e1be2243eaU, 0x3ecf413d3e884957U,
  0x3ed9a8dfbe517347U, 0x3f355fd43e295a33U, 0x3e29a8b13e9199b7U, 0x3f1af732be0ee39aU,
  0x3d5e24d6bf32d50fU, 0x3ecba1de3e75ffeaU, 0x3e001016bed1f1baU, 0x3e01e379bee3d8ceU,
  0xbf9078dcbe46f036U, 0xbf08b70cbea4f332U, 0xbdf2e8dcbe3467e1U, 0x3f4885cc3f0272f3U,
  0x3e5476f13ea00571U, 0x3e50132c3f046d92U, 0x3ed8b652beafb186U, 0xbf86f265beaa8b00U,
  0xbece4d56bdafcf45U, 0xbee51fb23f4edf00U, 0x3f44d8aabf866043U, 0xbdb275253ed5ba52U,
  0x3f54c1a5be99ada2U, 0x3ed70d93be4018d5U, 0x3eb3e3be3ed751e1U, 0xbe7535ce3eabda79U,
  0x3f026528bf455cb8U, 0xbf4e5e5fbd1e8479U, 0xbe82815f3db24a70U, 0x3f028dc7bf396fe3U,
  0xbf309a1cbe232299U, 0x3d618bf33d4e47a8U, 0xbf3ab472be41254aU, 0x3e68cadbbe8ad3c6U,
  0x3d838681bdf8458eU, 0xbfaca3d93f87c0ccU, 0x3e868c0fbef2a270U, 0x3eed5bfbbf596396U,
  0x3eaeaebcbdf2d6b9U, 0xbf0802023d8fe5c8U, 0xbeacc99c3ef71b69U, 0x3ce76fbbbe9d8224U,
  0xbda437bfbf0c9c39U, 0xbd166bf43f152b28U, 0x3e615b97beb68829U, 0xbf2b2fb33e8f2550U,
  0xbf4534b9bf6826eaU, 0x3e4e9746be871398U, 0xbf231e603e86ac48U, 0xbd72e2533f1991e4U,
  0xbeb5064f3e5d7bebU, 0x3ecf0c373e6bb081U, 0x3df1283d3e222b09U, 0xbe9ffb0abf3a4f15U,
  0x3c81b0cc3f147fe2U, 0x3ee514e0be8744e1U, 0x3f02a3fcbec0dbe5U, 0xbcde03b3bf96cfc3U,
  0x3f521f7dbea4a703U, 0x3dc9650bbea276d8U, 0x3ef98da6bf47875aU, 0xbf18e0babef6d08aU,
  0xbf0b4d4dbfa57a74U, 0xbea89449be874624U, 0xbef96e84bdf17494U, 0xbf011e553f4a1043U,
  0x3dafbaa8bd8ab51cU, 0x3e735347bef1a634U, 0xbf344229bd1dc648U, 0xbe751244be22f439U,
  0x3efd38b73e63fae9U, 0xbfb4af8d3df4efd7U, 0x3ea31f28bee9eae2U, 0xbdb828983ef6b6b6U,
  0xbe04cc74bf113923U, 0x3e3ea9783e2266c6U, 0x3f0cbbcebdf61fabU, 0x3f1cb75e3ef2e85cU,
  0x3e2305b73e0d93c6U, 0xbecc54983d957536U, 0x3f3db5fabf149a77U, 0x3f0e80dabff68ce5U,
  0x3e097a9cbe62d780U, 0xbe3f9d68bf72b6eeU, 0xbf7a1b83bec75f5bU, 0x3e13ae97be030040U,
  0x3e3077eebed21becU, 0xbf476122bd84b315U, 0xbe6e58b7be0d8756U, 0x3e96bd9f3f25c472U,
  0x3eabaae33f32b4b3U, 0xbf076107bec40e99U, 0x3edec35bbf2e4aa0U, 0x3eab42c53e0fd78fU,
  0xbf021345bf596f4aU, 0xbf395819bf1d99dcU, 0xbf5e90dd3f902ae3U, 0x3cea8e7e3f18749bU,
  0x3e408a3ebd689716U, 0x3e99c85d3d06d55dU, 0xbde8c28cbe51be01U, 0x3d70b62e3f824c9eU,
  0xbdd795673eaea655U, 0x3eb334a4be9dc56dU, 0xbea6873f39141dccU, 0x3e696ebb3f944a1aU,
  0xbf0d9e5bbe1462a3U, 0xbf84a4c5bf169b17U, 0xbd80b0ebbe0f5f4cU, 0x3ccd8958bf1e43a1U,
  0x3f2a2e133fb2f2b1U, 0xbd680a133e8aace8U, 0xbe9fe384bef43418U, 0xbe24572b3ca0b51dU,
  0xbf2d868cbd03cefbU, 0x3b9f89f6bcb57820U, 0x3f43c3573f0f8a07U, 0x3f27783dbb804094U,
  0x3eb806843e843161U, 0x3f4fc69bbece61bdU, 0xbdf0a905bf267af4U, 0xbc1b75113e4f857fU,
  0xbe2aed223f541c80U, 0x3d98186e3e8c5e01U, 0x3bc172c13de97edcU, 0x3ea8ea75beaf7453U,
  0xbea3d5ab3d462fb0U, 0xbf1516243df8cd24U, 0x3e3f795a3f1adba8U, 0xbf6de591bf0f1ab6U,
  0x3e935b543d9a42caU, 0xbeaf33f83dc4c9ecU, 0x3e5cf0bb3eb3c732U, 0x3e159587beb16e51U,
  0x3ea251a33f479d2aU, 0x3ea9dd5dbea8d52dU, 0x3cda4d273ed65b9bU, 0x3f182eacbeadc5d2U,
  0x3f1bc79bbe4bba73U, 0xbf73cde3bf865c19U, 0x3ef1ae343ee10a36U, 0xbf2cda383ea10bb1U,
  0xbd3c7f5dbf263981U, 0xbe3636f43e6af897U, 0x3ec2d7103dd37c7fU, 0x3dd93ff6bcfea83dU,
  0x3e75ee05bd476886U, 0x3f63e02ebed81f8dU, 0xbf586a70bf170181U, 0xbe974400bf0878c0U,
  0x3f40238c3e893b13U, 0xbe4e16643e57b429U, 0xbfa7ad76bec88adaU, 0xbdb3eb683edb8e40U,
  0x3ecdcb503d93e68eU, 0x3c2193a8beedceb2U, 0x3dd3e7a53e1e5a75U, 0x3e4f6f803e9c2218U,
  0xbe634fc73e185737U, 0x3e03914a3f94db00U, 0xbdc2e148be9a3f1aU, 0xbda8f9b83e706d85U,
  0xbe2f7519bb6707baU, 0xbf059f04be8854d7U, 0xbf0bd590beafc20fU, 0x3ecdb800beb88c7dU,
  0xbef8723b3f0e911fU, 0x3f5309babeb27bafU, 0xbf0f653e3e3f567bU, 0x3ea0ef89beac81a3U,
  0x3f055f4dbe88dc62U, 0x3ec1da9f3edab530U, 0xbf39e3683dff464aU, 0xbcbc9b3abf398464U,
  0x3caa94593d3fb43eU, 0xbe0b52833e658bd3U, 0x3e1b15823f063f8dU, 0x3f0186bebeb0fff6U,
  0xbf10e4fdbdb61ec5U, 0x3f40fa303d50259dU, 0x3e4a45773ec41fd3U, 0x3f24bb2f3e838434U,
  0x3eed2307bdd08425U, 0x3eae2a95bca64672U, 0xbf2381c73e93099fU, 0x3ea81f483e3e6a0dU,
  0xbebf5d20be8ba108U, 0xbf7c59743ed57ed2U, 0x3f04822bbf674b6eU, 0x3eabba3ebf09dbd4U,
  0xbdc3b48abf51fa61U, 0x3d82619bbf82b571U, 0xbf0db8283f07cde8U, 0x3dd73ab23e99ad60U,
  0xbf2d24813e70ed1bU, 0x3eb79eb1bdb47129U, 0x3e427520be5afe0dU, 0x3dc01baa3ed178dfU,
  0x3d920e96be3d16f2U, 0xbee528673e964b7eU, 0x3f619a0cbee946d2U, 0xbc4fc03cbf62f646U,
  0x3f34db133f4d1ed4U, 0xbe0036293e8db831U, 0x3f413e36bf4aa169U, 0x3cac944abd470e1aU,
  0x3ead2e453de0b6b2U, 0xbe115a3bbeac3757U, 0xbdb050f53e862f5fU, 0x3ec7ee2d3dc36315U,
  0x3eba8f00be8783fcU, 0x3e5917ddbef33e01U, 0xbe80dc3bbcff1428U, 0xbe9cbb0d3d758436U,
  0x3ed3ec21bd5af07aU, 0x3edc9d92bf778eafU, 0xbec21d133f2bb010U, 0xbf16346e3f51e3fdU,
  0x3edd4beebdee1a60U, 0xbee3e4773f2510b0U, 0xbe78e54dbeadaabdU, 0xbd007889beea51dfU,
  0xbda504a13f0017b9U, 0x3e7d902b3ecc0de4U, 0xbe3c914e3e7cd5c4U, 0x3ea2a1f5bdf5e058U,
  0x3f01cd92bdec534dU, 0x3adb93273e7b7cbdU, 0xbd9efd19be28930dU, 0x3d4e51063e6abafdU,
  0xbc89e8fabfa74758U, 0xbed173f83caff22aU, 0x3f78a792bdc24bf5U, 0x3f397f4b3e83db4eU,
  0x3ea94d7dbd062080U, 0xbf25075bbf4d6741U, 0x3f1d09edbede61baU, 0xbf86f877bf4cc24bU,
  0x3e04890f3e5498e9U, 0xbe06dc9a3f838dd5U, 0xbf8fc300bf5e9499U, 0xbf485ab03e422c21U,
  0x3d88ae57be2909a7U, 0x3e8491debe519cb0U, 0x3d18b6673def6ba1U, 0xbdaef32bbea3e253U,
  0xbf71f177b89d2160U, 0x3eb9f51cbf63d343U, 0x3f2208243e8d5faeU, 0xbf30ebe53e1418a8U,
  0x3e90d6263f49b7c5U, 0xbe970d0c3f1dbef7U, 0xbe7b240abc7a6ca5U, 0xbeaef67abfdd8dceU,
  0xbe5428fabf2c1197U, 0xbef363243f9340cfU, 0x3f1ba691befd1e98U, 0xbe255ff7bee7acbdU,
  0x3eadb04f3cf8cb69U, 0x3ed6dbfdbdbe32d7U, 0xbf26e82cbf05de3fU, 0xbf247739bf02b6a7U,
  0x3ddb046cbe156a84U, 0x3db13b86bc517d84U, 0xbf1d9af1becef8c5U, 0x3eabdf553f6ade68U,
  0xbe367e0dbf0fa11bU, 0x3cc58bdd3f26d350U, 0xbea1ed283f1b4028U, 0x3d396b10bd995601U,
  0x3eee53543f019f69U, 0x3e02f815bf4542c8U, 0x3f14d2c53ef49cc0U, 0xbef543b8c02bf760U,
  0x3ec82a89beb470f6U, 0xbeeb34d73e738a46U, 0x3de4fe6ebe982245U, 0x3ed63fb5bf815ddbU,
  0xbf8972aabf0c36f9U, 0x3f661f41be015629U, 0xbf0facdbbda8a671U, 0xbe0bf95bbeb69f09U,
  0x3d9a06bb3d9e560aU, 0xbf021f433f29e0eaU, 0x3ecf1a383f37a15cU, 0xbf02a3f7bf3f42f5U,
  0xbf136b0abd31ee30U, 0xbdc7d387bf8a0c14U, 0x3f3248d83e181809U, 0x3e1e5d4d3ecb97eaU,
  0xbf5ca4063d2fc69bU, 0xbe5f6648bf1d9defU, 0x3d3e3519bdf3d3f5U, 0x3bce3157bebdcb89U,
  0x3f0851a3be905600U, 0x3ec44bd3bebf8da9U, 0x3f8986123e838614U, 0xbeb8d32a3ed14eb0U,
  0x3e2d72a33f152cd3U, 0x3ddc8065be631944U, 0x3ef27b64bedf5543U, 0x3f036abfbf43dad3U,
  0x3e42691f3f87dc9fU, 0xbe34cdc53f5e1b29U, 0x3e6894263dac8679U, 0x3ed887703e9bcfa7U,
  0x3e9c61213da7c6b7U, 0xbecbccaabec214baU, 0xbe1246463f3545ffU, 0xbea591e23f3a7c45U,
  0x3eb924a73ea43368U, 0xbcaa5f853ee9952aU, 0xbd643cf33e7c039dU, 0x3edc326d3e9449f9U,
  0x3f8f67503ea4d5e3U, 0xbef62698bf0544aaU, 0xbda50366be5fc637U, 0xbf1af4843f258c59U,
  0x3df3ee6bbeeb9043U, 0xbe9817cd3df69cc9U, 0x3e762d55bf1c4179U, 0xbd24344a3edaf678U,
  0xbf2ea4733e496eaaU, 0x3bba68dabf1d0feeU, 0xbecf71c73d0e79d0U, 0x3dc84d3dbf1b8b08U,
  0xbeebcd58bf3518f3U, 0x3f51813bbe8ff8daU, 0x3c21b8c1bf8d6b4fU, 0x3e8034383f20ac34U,
  0xbddcdf7f3f7184e1U, 0xc017f2963df66312U, 0x3eb9fb323e9f2e1aU, 0xbe98c9c9bea902ecU,
  0x3ee908d23ea0cc71U, 0xbed665a63dd3da5eU, 0x3f04158dbf3cbbeaU, 0x3e7a29883ec62714U,
  0xbd1e5b1cbddd66f5U, 0x3e09ad01be7fd347U, 0xbcad6eff3eb01696U, 0x3dc9d9db3ea47691U,
  0xbe93d3773eccdfddU, 0xbefd5524bf85b061U, 0x3f2968cebefe3be6U, 0xbf60364fbe1ad5ccU,
  0xbc3642953d3d8fb9U, 0x3e54e83c3f1369c1U, 0x3f4b0d3b3e46c287U, 0x3f2c9287be558f9fU,
  0x3e9ad72a3eefbd89U, 0x3f012fb7bed3948aU, 0x3c5c2f833eb11867U, 0xbf81c8523dfa4d2cU,
  0xbeb101ebbe8f1429U, 0xbf47488e3e824c2cU, 0xbeb123063dbf95e4U, 0xbf77692b3f31bc4fU,
  0x3ed38d553ef81fe4U, 0xbf3cdf913d6c8fe9U, 0xbd348a2d3e0be18cU, 0x3db3e6c23f7b0996U,
  0x3e16e011be8c99f1U, 0xbd8aa2453e502b48U, 0xbf19463dbf030903U, 0xbedbaa53bf0de272U,
  0xbe5a0eb7bf825a0aU, 0x3f0b7f623ee7ab0eU, 0xbe7a1a303edee540U, 0xbebfeb89be649ecaU,
  0x3d1ba5cd3cf51a11U, 0xbf3d378ebd269cb8U, 0xbe51ce13beb3ab0aU, 0x3eeb834ebe4fc2c6U,
  0xbeab9d83be81314aU, 0x3e4c85a63e01c76fU, 0x3f5789bbbe6bb487U, 0x3e3603183f6c7d14U,
  0xbe9cfcc2bebd9d60U, 0xbe1743e03d56c56aU, 0x3ef3d0af3ec88b17U, 0xbebd743c3dc346a2U,
  0xbe2948383e42ec47U, 0x3f0fa2f33fb04a56U, 0x3f1238a93f1d1ffdU, 0x3e91b302bfb62855U,
  0xbecde573be2554e3U, 0x3e7a006f3e1e2e69U, 0xbf5c40e7c006d472U, 0xbdeb8296bf6469a3U,
  0x3ed6c2cfbd22f6d9U, 0x3ecdd0833e97cf1fU, 0xbeb115e8bdc0dcfaU, 0x3ed389b53f1a5cdaU,
  0xbfc4b6febeb90a2aU, 0xbf122e573e54f897U, 0x3eab1e1cbd257aa3U, 0x3f02d157bf05ee16U,
  0x3e2685eebd76daacU, 0x3dd830643e7aa4ddU, 0x3ec513173e35e12fU, 0xbe54edeb3f0c0299U,
  0x3de802d93dde48acU, 0xbe6a49e5be805375U, 0x3e4611eb3f619241U, 0xbd060d703ee0803fU,
  0x3f3f9902bd55a4eaU, 0xbf7e9915bfc694ddU, 0xbf93c5e7bf374be3U, 0xbf3724253e0fc36aU,
  0x3e53eb703e3aa815U, 0xbe8de2aabf032d0fU, 0x3f83cbe1bea4d944U, 0x3f17565cbd579b1eU,
  0x3ef668023e4d53f0U, 0xbf8a0e47bf9e2fa0U, 0x3e03fa01bdc377bbU, 0xbe9f301a3e77b2ddU,
  0x3e134c5ebe4373d1U, 0x3ebc6a18bf47418eU, 0xbf4ce5a93ec7238cU, 0xbf64b7dc3e1d7416U,
  0x3dc51cc03f263cebU, 0xbeddfb623e8499b1U, 0xbd6c209abc7b9597U, 0xbf039934be8efdb9U,
  0x3e65fb8b3ee973bfU, 0xbdddc9e93d5f411cU, 0xbefae9cbbf0786f1U, 0x3c4fad8e3e925809U,
  0xbdf38e263e9ee91cU, 0xbf96f1323d869903U, 0x3edb67843f0306feU, 0xbe84821c3dd476bcU,
  0x3e658d9fbdc2f9dcU, 0xbec102ec3ed261feU, 0xbef977053e14f5deU, 0xbe4164bebedfd752U,
  0x3f19f78fbf194c8bU, 0xbeb7de21bec22bc0U, 0x3f5030e1bf1de689U, 0xbf191bd23e147bedU,
  0x3f5bded6bee562c5U, 0xbe67edbb3eb7b1c1U, 0xbf8fe2f73d03ce0bU, 0xbca999603f2ea223U,
  0x3ecd4ef6bed30941U, 0xbea784433f1227e7U, 0xbf1f2ade3db5b69aU, 0xbf821a32bf380824U,
  0x3f1d606abbfaff13U, 0x3e46b9b03ef2e2afU, 0x3ea2bf2a3e8605e9U, 0x3e5df60ebe18272bU,
  0xbe7491623e967a8fU, 0x3d252af1be5563eeU, 0x3e8f6d69bda43976U, 0x3f4cb9cfbe9ec4b9U,
  0x3ebd16073f1b51aaU, 0xbdb164f6bd5d0c2eU, 0x3ef762733ef925fbU, 0xbdceea28be68bc60U,
  0x3d3a0152bdc56861U, 0x3ed236173d90cce8U, 0xbe2f3974bef163dfU, 0x3f0c08953eaa8bc9U,
  0x3f2dd21c3f3371aeU, 0x3efab817bec5b6e0U, 0xbf5a7d3dbd886d2dU, 0xbfc33b993eded769U,
  0x3f34b4933f3b2c24U, 0xbecbbecb3ea07a5aU, 0xbe423af63f733c5bU, 0xbcb999a1be27eb41U,
  0x3e2b91593ed7b9e5U, 0xbf2abb5ebed9c040U, 0x3f251d0ebec9b2c6U, 0xbe67b3a63dcba000U,
  0x3f71c57dbf08f962U, 0x3e864621bf27c9b4U, 0x3f1470bbbebb936eU, 0xbeb161403f096dfbU,
  0x3da373f33c0d0ffdU, 0x3e9340733d6bbe7bU, 0x3da56abd3e28193aU, 0xbea8d083beb310e3U,
  0x3e905143be7690f7U, 0x3e919f933e8871fcU, 0xbe39b0a53deac9bcU, 0x3e74dd5f3e6b02d9U,
  0xbeb895203e5cf8e0U, 0xbeddec26bf17486fU, 0x3bf678a2be447b9aU, 0x3ea431aabc7e5001U,
  0x3ed5a22fbe540ec2U, 0x3ec0cb893d9c5743U, 0xbee4fb9cbf3624edU, 0x3e33c68b3ebac96cU,
  0xbf570fb43dac80bcU, 0x3e9360cebf0154e0U, 0x3e2ad8063ed8a38bU, 0x3e9020dcbdd069ebU,
  0x3f0989923dec9925U, 0xbdc516913d4e6a11U, 0x3e820a62bf14538eU, 0x3eef8cc9be88c371U,
  0x3d1a2d12be96656dU, 0xbe855a27bde858e1U, 0x3e47c4eebd82b474U, 0xbf49c896bef69932U,
  0xbe04c4a13ec6f3bdU, 0x3e8ee0663d72de35U, 0xbd1a8621bedfc8dcU, 0xbe338bdabde7b133U,
  0xbf1d36a5bed6bfa3U, 0xbe84f9873e99fb9eU, 0x3ebf64cc3e677e9aU, 0x3eb6419d3de47a92U,
  0xbd9111a4bf0f01a5U, 0xbe20c1603f024200U, 0xbe7334923df727d1U, 0x3d9d65f3bc2e74b8U,
  0x3ec6e833be77d486U, 0x3d4672b4bd09d8c3U, 0xbecb42013eebf619U, 0x3f3935333e41c649U,
  0x3eb8550abdeb069eU, 0x3c6e621ebeba62b8U, 0x3ea794203eda4239U, 0xbdb6e42ebf2bb81cU,
  0xbeeddacabf01710aU, 0xbd1bd32abe688b17U, 0xbebf7c23bf465a9bU, 0x3e407f913f1b8f7eU,
  0x3eecdf4f3f0c9473U, 0x3cb689babe94cd0bU, 0x3ea5b43e3e3e47e0U, 0xbea88153be3f5d4aU,
  0xbee121873ea93a7fU, 0x3e0503d53dfb37feU, 0x3db1a4acbd771a71U, 0x3e05c35dbcfaf232U,
  0xbe9d4b943ccbb493U, 0xbd12d85e3cf58590U, 0x3de516883d48369fU, 0x3e0f2a4ebeab6f7eU,
  0x3e946e0d3e5cf890U, 0x3eb4210dbe28c408U, 0x3ef9bfabbd96dbacU, 0xbea581033eab55baU,
  0xbe48a695be366c41U, 0x3e408a983e8555b3U, 0x3e3779d43e45d05dU, 0xbd0b326cbeb8ea5eU,
  0x3e3fd5023e8cb396U, 0x3efda2193dfc9a84U, 0xbeac3b99bea20e4fU, 0xbe861536be2a2544U,
  0x3cb126d4bec41c10U, 0xbeb130a83e92abfeU, 0x3e8dc9e43d570455U, 0xbea99bbcbdbdda85U,
  0xbdaefc4ebccc01c5U, 0xbe5f672c3b3bfd35U, 0x3e394753U,
};


ai_handle g_emgclassifier_weights_table[1 + 2] = {
  AI_HANDLE_PTR(AI_MAGIC_MARKER),
  AI_HANDLE_PTR(s_emgclassifier_weights_array_u64),
  AI_HANDLE_PTR(AI_MAGIC_MARKER),
};

