/**
  ******************************************************************************
  * @file    network_1740727433501_data_params.c
  * @author  AST Embedded Analytics Research Platform
  * @date    2025-02-27T23:26:39-0800
  * @brief   AI Tool Automatic Code Generator for Embedded NN computing
  ******************************************************************************
  * Copyright (c) 2025 STMicroelectronics.
  * All rights reserved.
  *
  * This software is licensed under terms that can be found in the LICENSE file
  * in the root directory of this software component.
  * If no LICENSE file comes with this software, it is provided AS-IS.
  ******************************************************************************
  */

#include "network_1740727433501_data_params.h"


/**  Activations Section  ****************************************************/
ai_handle g_network_1740727433501_activations_table[1 + 2] = {
  AI_HANDLE_PTR(AI_MAGIC_MARKER),
  AI_HANDLE_PTR(NULL),
  AI_HANDLE_PTR(AI_MAGIC_MARKER),
};




/**  Weights Section  ********************************************************/
AI_ALIGNED(32)
const ai_u64 s_network_1740727433501_weights_array_u64[3025] = {
  0x3e799dafbe591c20U, 0x3ddd26713e5c1406U, 0xbdee2ec93d797932U, 0xbe054cbebde0528eU,
  0xbc7ccd91bd0dc868U, 0x3d29424abe745225U, 0xbdf37e8dbdd5e3bcU, 0xbf025ea63de4b030U,
  0xbe14beffbc9a325cU, 0xbf004b01bd809426U, 0xbd90f5d6be03da6eU, 0xbbe765463cfba8c6U,
  0xbe67f7ef3e3bf3acU, 0x3e498dcabe668875U, 0xbdac369d3eca2ae8U, 0x3e219876bed2d72dU,
  0x3eb2d0f6bca4e347U, 0xbddc4c6abeb9dce6U, 0x3e25d90bbe447b23U, 0xbeb56f133c18acb1U,
  0x3daf88923e74b0f5U, 0x3e8297563e87476eU, 0x3d24b5163e867d28U, 0x3db77062bb480f78U,
  0x3da749d43e0334ccU, 0x3e9335e23daa7c3bU, 0x3d2afbf03d365497U, 0xbe19ee113e1a30c8U,
  0xbe7512033e696d44U, 0xbdcb6bba3e0f9882U, 0xbd9cafd3bd260174U, 0xbe23471a3da8bc72U,
  0xbea321b93e7a585bU, 0x3dc8ee4d3e302dcbU, 0x3dd8f059bba8e6f1U, 0xbda8a1e63dacc185U,
  0x3f040cfabeac6bdbU, 0x3e353c563e2c30bbU, 0x3f064f52be8c9a94U, 0x3e4cc98d3dccf53aU,
  0x3bef833dbee7aff6U, 0x3ca02c2abdc31264U, 0xbd77503dbe81d940U, 0x3d454ef2bdaae360U,
  0x3e61f7453ea25f9aU, 0x3e31313cbe09d597U, 0x3c6f4ff73cd1c37eU, 0x3e057df5bd672b80U,
  0x3e012e313c8889fbU, 0x3d30f1283e967fd1U, 0xbbc86064bd11c6f6U, 0x3e3b7ed63dc32d35U,
  0x3ec5d2943e1a43cbU, 0x3e788c3dbdb5388cU, 0x3e2df2a6be9c155aU, 0xbdf1495fbe259fd8U,
  0x3dd130d5bddabd07U, 0x3e3e03b73e08d4e8U, 0xbd2815423c8c8158U, 0xbd9ba91ebd97172dU,
  0xbd2516c23dd59e16U, 0xbe1ac0aebdd99bcaU, 0x3dc19a9ebb88afe9U, 0xbe755f6bba896301U,
  0x3df656f23e0f20d7U, 0xbd9d4929bd475e84U, 0xbc0a40eebdf9f2abU, 0x3e0383623e3ecee4U,
  0xbea86db53e4e8e8eU, 0xbf142a4e3ed0b0adU, 0xbd03f6463e26a2caU, 0xbd835ccb3d66226cU,
  0xbf00d625bdb220e2U, 0xbe388eb83d9496c7U, 0xbe6e089ebe264befU, 0xbdb4e5dd3d18846dU,
  0xbe5680103cb41fccU, 0xbeb36cf33e47eb41U, 0x3ba331e93e15856cU, 0x3dc74e32be927591U,
  0xbe1fde5d3da0106aU, 0x3e2cf797bdfe9db8U, 0xbd0fcc223a82ce5dU, 0xbddf7d203c97c98aU,
  0x3f069279bcd89030U, 0xbef350cc3e5ebeabU, 0x3e24aa243ce2b88aU, 0xbf1ec16c3e3ce0e7U,
  0x3e1ba61cbdd3767aU, 0xbde71e1a3ec52752U, 0x3dc74ae93db75e69U, 0xbd22af543de06b01U,
  0x3dc18168bc5fc268U, 0xbf36b0683e6e3888U, 0x3df50a2abd0117ddU, 0x3de60168bdc162f5U,
  0xbe4d28253db4044dU, 0xbdfac5c23ea0e656U, 0x3e16d9d73d8cc774U, 0xbd8595423eb948d6U,
  0xbe12106b3e498b24U, 0xbe88eecc3e30c837U, 0x3dcc192dbb2ffafbU, 0x3e9e16103df871bcU,
  0xbe6612643dc942ebU, 0x3e72efb73bb2eea0U, 0x3d3e6b77bd5fab59U, 0xbe0826be3dac65bfU,
  0x3e90dc813e4c9e3bU, 0x3e757c51be33475dU, 0x3dda12b93df8ec99U, 0x3ddddd4dbea64ce4U,
  0x3def969a3defbc09U, 0x3e15c49cbec8a0d7U, 0xbdbf2213be9c48c5U, 0x3e00b712beca3b44U,
  0x3eac452bbd7ad066U, 0xbd9e1047bd86a893U, 0xbc8d80753de67fdeU, 0x3ebe6b87bd00fa3dU,
  0x3ce3548bbee6cf3fU, 0x3d9fa6bebe3d398dU, 0x3dc88ee5bee1b7b8U, 0x3cbdc84dbca33b5dU,
  0x3e07fd09bf2061bcU, 0xbe146a713dd3df8eU, 0x3e30b94e3ec2627fU, 0xbecc030f3df0169fU,
  0x3e253e823d8efa80U, 0xbefdc1b6bb86f270U, 0x3d32aebbb9d825b3U, 0xbd1af4c4bc0ddb44U,
  0xbe9ecf80be0eed19U, 0x3ea24c15be380f97U, 0x3d681507bf01acfdU, 0x3efb47a9be18fd29U,
  0x3d9f61313e9f184fU, 0xbeb7f548be6068f5U, 0xbe0e9de93e0a1025U, 0xbeccb2463e0a1568U,
  0x3d34c958beb136cbU, 0x3ef0e76f3df25036U, 0x3d02420c3d20b5bdU, 0x3c6518fd3d0f4133U,
  0xbd9e515dbdf1a8f0U, 0x3dcc4adebc325bdeU, 0xbeee303dbd47da16U, 0xbe8359953def047bU,
  0xbed7f4ee3b8be773U, 0xbedbaec73dd81afcU, 0xbdeb1ebcbf5db25aU, 0xbe06787abea44babU,
  0x3d45a8aebf057cf6U, 0xbe3b8a61bf4067c7U, 0xbd3170103d905ff6U, 0xbc52a5f4bc25be6aU,
  0xbe889501bd5421feU, 0x3e8ed5bb3e15d6bbU, 0xbea6a9503e2942faU, 0x3e9f202e3e801811U,
  0x3dd1c0b53db2ff59U, 0xbe9e6629bf407393U, 0x3d74e3ebbe1ddaa4U, 0xbed214cdbf27a14cU,
  0x3e2c1ad83e3aecc2U, 0x3efd65573efdb255U, 0x3d934534be3a6cfdU, 0x3dbed3df3dec678eU,
  0x3e8844c13d7b0c49U, 0xbe242d733e4f3473U, 0x3e6b44bcbd7a3a35U, 0xbe1f0f883dc24a14U,
  0xbcb1cabebdb9de83U, 0x3db5c94e3debb3e0U, 0xbe43fd79bdda0ce7U, 0x3e08d5e33de9eebbU,
  0x3c18359fbd4feae7U, 0x3cd361b53e33b00dU, 0x3e2097ce3e0c5c8fU, 0x3dbaa6aa3e03d76dU,
  0xbc9c290f3eb46742U, 0xbe38e1053db22cbaU, 0x3d9ff85b3ecf8d17U, 0xbf06ac9b3ca6ac68U,
  0x3de4537bbe35c35fU, 0x3e85f0043e9c0b48U, 0x3e747cc03de10ac5U, 0x3e5c505f3d379465U,
  0x3db135cabcd0c865U, 0xbe09651a3ed4f2a4U, 0xbd6deca5be06b8feU, 0xbd47aaa9bddca8f3U,
  0xbe5de2693e9025edU, 0xbeb05e1fbea4bb01U, 0xbe3c5cf63ec9f84eU, 0xbf504367be2c1444U,
  0xbcd487dcbcf202c6U, 0xbf5202b8be7619f2U, 0x3dc819e13d85ff8bU, 0x3e4dce043dffeacdU,
  0x3dd17816bd5ff2b8U, 0x3e8a0b973e197f17U, 0x3ccdc4843d98de40U, 0x3d3ce818bd9ce759U,
  0x3e86f6e0bdb20163U, 0xbedee2453e52b651U, 0x3e3985a53e15d239U, 0xbe254ee13dcfce5eU,
  0x3dfffa0dbd261fbdU, 0x3e57c5553ddc766cU, 0x3bff927fbdbe50a4U, 0x3dc5408e3cf0660aU,
  0xbe432cb0bcab8e2cU, 0x3e63a6c83ea04916U, 0x3d2df44b3a015ebdU, 0xbc04f78c3d426dcbU,
  0x3da46684bebabb36U, 0xbe89066fbe059856U, 0x3e0b662e3e15e730U, 0xbdedc81cbe99f831U,
  0x3e5cb02e3e38f8acU, 0xbe5f62963e0db10dU, 0xbe36cf0a3d8d4938U, 0xbf400dbdbf011d70U,
  0xbed7e262bda7435aU, 0xbf13979bbeb3de08U, 0xbd3dcd50bcd0305fU, 0xbd78bc5fbd46355fU,
  0xbe80d58cbbecf264U, 0xbb9aa2883f0853c0U, 0x3da6674c3ed569baU, 0x3e4e70323ee71e95U,
  0x3e1d25f7bd00e5e7U, 0xbf00d4d33e0b9b68U, 0xbe4cd9773e3cebf9U, 0xbe83f9893d0b9721U,
  0x3d5b62323e0e3697U, 0xbda1c4bd3ef4aea1U, 0x3cb25ab4bd31dd1eU, 0x3d7ad6183d75c4d2U,
  0xbe06ceaebd6d6d06U, 0xbe8dc11a3eb9f954U, 0x3c5c706abcf96f5aU, 0xbf11150e3ec31354U,
  0xbda06001bdc9fec8U, 0xbe263dc53e4be6e1U, 0xbce33236bcf5281fU, 0x3e1dfef3bdbb3477U,
  0x3ea2e0383e7e4120U, 0x3df14f1b3cc87f7cU, 0xbd93012d3cb69daaU, 0xbe35ac293d58b865U,
  0xbe8203933e568b5fU, 0x3d0c99e3bcf57fc2U, 0xbd918e273e2f3d50U, 0xbea8c8c83e1d497bU,
  0x3e240de23e06dfccU, 0x3dc8ecdb3d92f0d8U, 0xbcb467433d93b5a0U, 0xbd2033863cbbe863U,
  0xbe77821d3d54ae0dU, 0xbe649b843eaf2ef7U, 0xbc015c40bd5eaf94U, 0x3e5949583c1db24eU,
  0x3dba7247bd3afca1U, 0xbe95feae3dd6a278U, 0x3ddfb2e7be1eb9b3U, 0xbf20c315bd31b5d9U,
  0xbdc8a92dbd5799f3U, 0xbe9eba183e7821eaU, 0x3dc4a10f3db7c8eaU, 0x3e799ae53dbaff65U,
  0x3e838f6b3d92ec12U, 0x3ed8bfa6be4d61f7U, 0xbd23c1bebdecd120U, 0xbbc077e1be00ff8cU,
  0x3dc406693da781e5U, 0xbf60477b3e831f9dU, 0x3d0151333e2415a6U, 0xbf3b48633eb43e84U,
  0x3df7c9bfbe16dbfaU, 0x3e8b382cbc674c25U, 0x3e987d2a3dd53168U, 0x3e0fa126bd0a1df8U,
  0x3def56393e4386f0U, 0xbe8f16c4be515a1bU, 0x3d7412683dcb754bU, 0xbe08218c3de95f82U,
  0xbdd921203ea326d0U, 0x3e0b95213e1fb7c3U, 0x3e68f02b3e78be70U, 0x3deba8603efa1215U,
  0xbdccbd4f3e33fcd3U, 0xbc25882c3ec98084U, 0xbebd5cd4be6713ceU, 0xbd2929efbd9ef9d8U,
  0xbe1abe89bda6ef50U, 0xbdc7a5e9be1d4ae8U, 0xbb79fa173d2bf4c3U, 0xbcb1f1253d747d9aU,
  0xbf1a64c1be1a7a53U, 0x3e7e2b1e3d7aca7bU, 0xbec69b8ebe0336a4U, 0x3e9cf924be36d537U,
  0xbf05684bbe893f25U, 0xbe39beddbd71ad66U, 0xbf0d1a68bdc9ebc8U, 0xbe0c161a3d566163U,
  0xbf326eba3e85f805U, 0x3ec4fc1dbebd0055U, 0xbd86728b3cb23f05U, 0x3d4fba34bcb5f1b9U,
  0x3eead2fbbd2b558cU, 0x3da68908be8cf541U, 0xbd8c57fd3e1eeda6U, 0x3ea91441bef41687U,
  0xbda60cb4bcb8d19aU, 0x3cb4e963be964717U, 0x3e037c5b3e587a4eU, 0xbd0c19dfbeb76bd1U,
  0x3d3d469bbdb5e85aU, 0x3d2ad540beb6f1f7U, 0xbcdf5a1e3ca11d5fU, 0xbdaeb22abd82a136U,
  0xbebe2414bef76401U, 0xbbbf70f03e68bf3cU, 0xbefae4cbbed18c7bU, 0x3e2759a93d9ef878U,
  0x3e36ed463dc566f2U, 0x3d48bca23e21f19bU, 0x3e07ac453d75313aU, 0x3e0711463e438c94U,
  0xbdd4c011beb3fbd1U, 0xbe9679553ed679b7U, 0xbd472eafbcb9a96dU, 0xbbef94043c7c10bcU,
  0xbe5764a13d040c88U, 0xbed82d2cbda36991U, 0xbd4fb63a3d7e3f70U, 0xbe7f71be3d946e87U,
  0x3cbd30773ed36962U, 0xbe3368e53e56fac4U, 0xbe3d74ed3e090515U, 0xbeab941b3e04373eU,
  0xbdea9addbdcf430dU, 0xbdee2a193e4bdd18U, 0xbd49cd78bc7dbe64U, 0x3d16ca36bdcee702U,
  0xbd613974befd04d8U, 0x3e44a6543da81bdaU, 0x3e298f2bbf1e78e8U, 0x3f184f3b3d6e5ddfU,
  0x3e9a2c9abd35527fU, 0xbe614348be0bf3edU, 0x3eb7bf2b3e6e0953U, 0xbe1477e4bd2c5d50U,
  0x3e49d843bf26aa06U, 0xbc758bb93d2c021eU, 0xbd0d93acbd5d4e71U, 0xbdc07e153e2113e5U,
  0xbe2cdcb9be0d65f9U, 0xbe3029163e5bcda8U, 0x3de14d8bbd5a4a96U, 0xbe361634bdb532caU,
  0x3d7548d1be5a0afeU, 0xbdec405cbd800fa8U, 0xbdfc8760be66beefU, 0xbd4de379bcca0e7dU,
  0x3ea518adbe560f2fU, 0xbed1f82abcfaa7b9U, 0x3d6cbb3bbdba901fU, 0xbd0d177b3ce78130U,
  0xbeebd9273e417933U, 0x3e4af2173e3683f0U, 0xbeb16efa3e3c49cbU, 0x3e547f913c6809deU,
  0xbdabd4203e0b1b74U, 0xbe4bc8aebea7c7caU, 0x3de1a7e5bc35094eU, 0xbcdcecc4be030dc0U,
  0xbf2b98153da255acU, 0xbcc76971bde1f64fU, 0xbc5a45d23e66a88eU, 0xbcf8fbfcbc0c121bU,
  0x3c3dd24cbcc29973U, 0xbe4cef67be285a6bU, 0x3e1fd36cbda4b7ceU, 0xbf08f70ebeac7f70U,
  0xbdf9b7853d274d87U, 0xbe8c37f4be51f41cU, 0x3c96e6a43d3acc6aU, 0xbddc6355be091c00U,
  0x3cb9dc693c6e1d00U, 0xbd53320dbe71c42aU, 0xbc6a2dd3bbdfcb27U, 0xbe185d67bd68e180U,
  0xbe2beaf7bec84757U, 0xbe90ab9d3deb5bf2U, 0xbc536661bf328326U, 0xbe25f2333ef8fcd0U,
  0x3db42259bdf9151cU, 0xbe30b287bf0fc92aU, 0x3e08862b3d537ed9U, 0xbc948e2ebf0e1756U,
  0x3ea03767bf14f692U, 0x3e7158933e8b60f3U, 0x3d8f0b913bfbb019U, 0x3db3d52dbd79f65bU,
  0x3c0a38b0bd589caaU, 0xbe7ea3203e740605U, 0xbe3548f8be07c26dU, 0xbd82bf713e0ad580U,
  0xbe900d82beb4b6a3U, 0x3db25fe4bce0d870U, 0x3e7304ffbeec5cf2U, 0x3bfd9b433d2f3c8fU,
  0x3e2ed74cbed7fc85U, 0x3d9a72a4be194ebbU, 0x3a595f983ddf0d12U, 0xbc6149ffbdb8a8adU,
  0xbe43eca73d19aab6U, 0x3820b1c03df02df4U, 0x39c2091abb8abc0dU, 0xbcd8bd003e0c0c7cU,
  0x3e8666b63c2d5945U, 0x3e35c34e3e75cf83U, 0x3edc449c3d0714b3U, 0xbd4749f43d05ad55U,
  0x3f05246d3ea3783aU, 0x3e4090c4be0011ffU, 0x3dee9f283d9714afU, 0xbcaa8d613e0d9c86U,
  0x3d709a95bf4af42eU, 0xbd2fbf073e4ffdddU, 0x3c89bc4bbf45f2e9U, 0xbe9dedb93e1b8458U,
  0xbe4645b5bf8ad4e8U, 0xbf2bd123be83ab8aU, 0x3d386b35bd09ae61U, 0xbebca4463da84f3aU,
  0x3db2beec3d147471U, 0xbecd85713d664e5cU, 0x3d06ede93d04cbe6U, 0x3c9d3870bce07ae4U,
  0x3ecaf9e73e39ad9eU, 0x3dfd03ab3eba7528U, 0x3e83513f3e6f811bU, 0xbc826a4d3ce621bcU,
  0xbe7cdae6bda92c7dU, 0xbdfe78273ed394bdU, 0xbe126820bcb306cfU, 0xbc0e63013e55efabU,
  0xbd44da9c3e412b60U, 0x3eb1b3ebbd650fd0U, 0x3d81bdbfbd87f9c6U, 0xbd146e4b3daeeaf4U,
  0xbe9d68d3bdeac3a1U, 0x3e6a651dbdb0233eU, 0x3d9abe353c2199cdU, 0x3d8a00b2bcebb5e5U,
  0x3ed95d02be293d91U, 0x3e237586bb8391d3U, 0x3e9ff0863dd07bf7U, 0x3dcaac70bdcfb7d1U,
  0xbcd57541bbf3d721U, 0x3daf17ed3e7dc924U, 0xbb9028893d1f7e02U, 0x3e304f80bc9ab29bU,
  0xbf0e59033ec9cf1dU, 0xbec385cbbdf73a31U, 0xbef9f6313e4f8ba8U, 0xbec2f8ffbe01172bU,
  0xbd0e1a7dbdc86bc9U, 0x3e586679bd713ecfU, 0x3adfe66dbd8ea368U, 0xbd8f76943c785f83U,
  0xbf2e1bca3df0541cU, 0xbe9164713d85d93dU, 0xbda9a0d23ceb200cU, 0xbe06f484bd472ee3U,
  0xbd31b2b63d6ddaaeU, 0xbdecd27e3ee65039U, 0x3e8921babe375856U, 0x3e09a1ae3e82bc2bU,
  0x3eb4213abd83e1b0U, 0x3eb6f3ae3f03829aU, 0x3c7ce6cb3e0cab0bU, 0xbe38f068be129f30U,
  0xbd9e74dcbd6ea534U, 0xbe303c943e030b38U, 0x3d7a20473df423acU, 0x3e5a12483e841b0dU,
  0xbe6ddeeabdd98413U, 0xbe6b9e1dbde8f375U, 0xbd771442be02e52fU, 0x3d387013bde9d360U,
  0xbe8e5106bd5f14eeU, 0xbe94bd283d6bf4e4U, 0x3e13796bbd100d02U, 0xbda9b0a0bcaffa10U,
  0xbe1fe57f3da5e396U, 0xbdfbdc6d3e3060deU, 0x3cba81dcbe09c036U, 0xbe4e67fcbe211bbeU,
  0xbdc1ab923e1f6ef3U, 0xbe96d82bbdea358cU, 0x3d93208bbc5b51fbU, 0x3d6bf398be01ccc2U,
  0xbe9cdf50be6f4138U, 0xbd97a4793e2b4124U, 0xbc0dcb2ebd758007U, 0x3ba6d1553c3dac75U,
  0x3e7b47663e29781eU, 0x3e3589dfbca2faa8U, 0xbe0918f93d945ad8U, 0xbd2a14cdbe5462f6U,
  0x3e35115abe7b84ffU, 0xbeefc756bd97c5e0U, 0xbe4268ef3c0ad316U, 0xbeefb607bd7aa96cU,
  0x3d231f6dbeab4009U, 0x3dc6d9253e7e8ec1U, 0x3de43a10bee3e3a7U, 0x3d24d5afbd391744U,
  0x3e3f9746bcbda997U, 0xbe4520bf3e44f17eU, 0x3e8064b43ddbe2a3U, 0xbc93b66f3e848c7aU,
  0xbd897837be90c8eeU, 0xbe5f59debdd387c4U, 0x3e097c103d3ebcceU, 0xbe07421e3e2fdc2aU,
  0x3ea00871be7f8f19U, 0x3d96b4363e4d89dbU, 0x3e217855bea018efU, 0x3e8125debdc50a87U,
  0x3e054a78be42e2f6U, 0xbe4f460a3d634b3cU, 0x3de6aec9be1b3c15U, 0x3e2fc6663bebd6f4U,
  0xbc6e00a33dffa1eeU, 0x3e43aa8a3cef68a3U, 0x3d0687153e0f250aU, 0x3d555b5a3d8c3d7dU,
  0x3e1559103dc84ca1U, 0xbd8e4b50bdf14d6eU, 0x3d13f3f53dfc23beU, 0x3c8c419ebd534b39U,
  0xbd3a760fbd092f54U, 0x3e2f03cf3c307ae8U, 0xbe14ff1abd5d40ccU, 0xbea0bd16bd1a4a1bU,
  0x3dca5630bde35102U, 0xbf2aabd6bc5d5ffcU, 0x3d96d0b2bd4f4e1dU, 0x3db9e7873e94ca08U,
  0x3ea4a31f3e5d074bU, 0x3de8e4393e4bf6dcU, 0xbe0346ea3cf25b62U, 0x3de191a3bec4fedaU,
  0x3e4a1f943e84aec1U, 0xbe06613bbe75882cU, 0xbc2803f23d8e586aU, 0x3c1077b93dbd81f5U,
  0xbe5dd68f3e32ae51U, 0x3e85fc62be3c36c3U, 0xbdb607f53dd0f8b7U, 0x3eae6c33bdf8f377U,
  0x3e953b10bdbcf1c2U, 0x3e2e2308bd04fc98U, 0x3e89613d3d815706U, 0xbd003f14be246c8aU,
  0xbed9418abdc2c4b1U, 0xbeee43debe700b49U, 0xbc4d1da2be4108edU, 0x3cf36482bdca8da6U,
  0xbe4de06cbe9a86c7U, 0x3eaef286bd4cf5aeU, 0xbe0858d3beb3220bU, 0x3ea238ebbe13ca2bU,
  0xbe0ee91fbf188c9eU, 0x3e5f4db6be3d564dU, 0xbe777cfebe603297U, 0x3e23444dbe395129U,
  0xbed03f063dc87b89U, 0xbe22e6a8bd08b2b4U, 0x3d5654d43ba6a0bbU, 0x3e4e1d903ddcbdfaU,
  0x3e6a993f3dfb5620U, 0x3d8a45e1be13f636U, 0x3e38aa463d1d7cc2U, 0xbe952b1dbe7181e4U,
  0xbea728acbc9b2d47U, 0xbe9f269c3df5ee2dU, 0xbddf6e7abd29ee87U, 0xbed8579d3e01d8e8U,
  0x3d2f34713ed9b99bU, 0xbe874d053dde5a49U, 0xbd97682cbd1d4293U, 0xbe0c3fd9bd2fc414U,
  0xbeba638e3e410821U, 0xbebbd1083dacb52cU, 0xbd24da60bd9591d0U, 0xbe00a4bd3ef4aee0U,
  0xbe8324be3dbd57c0U, 0xbdd2e0f43edc5b64U, 0x3c2404a63e2679b1U, 0xbe8bc85cbe1bb2f2U,
  0xbe45c1d23cd4dfa2U, 0xbe03997e3de2d372U, 0x3d47f4bb3cf6ca3eU, 0xbcdb00933de54625U,
  0x3e85fcddbed9a901U, 0x3ed475333ea6e0acU, 0x3e0631e0be9da6f9U, 0x3f0c2b203dabbf31U,
  0x3e57fbe93e9e6b4dU, 0xbe099c703e009679U, 0x3e5bb2cb3d5bf26aU, 0xbe63ec2cbd9a5d29U,
  0x3dda9e33be04de03U, 0x3dd665dfbe78a29bU, 0xbddacaaf3cd668b6U, 0x3ded66b7be2de9c2U,
  0x3dd2e542bf805d4cU, 0xbd3e94563d3dea40U, 0xbd81aa8ebfaa841cU, 0xbd1c91d83d250489U,
  0x3e12dc6fbf93520dU, 0x3e80d499be52a77dU, 0x3e08e7dd3e6b4718U, 0x3dba33e73cb54286U,
  0x3dffb0cc3eb25cd4U, 0x3e17d04b3dfc7579U, 0xbd17ba3dbd23d2c6U, 0xbc75ee1ebd8d0e42U,
  0x3e2cfac9bee6d3d6U, 0xbbbd6ce4bcb61843U, 0xbe1ac25dbf08c8d2U, 0xbe3e3bcfbdc9d7b6U,
  0xbd33bfee3e9c6384U, 0x3baa02a73df6fd8cU, 0xbe2375da3e9fba05U, 0x3c1b4835bddf48b4U,
  0xbe413ecfbd810b96U, 0x3c91d9c03e4edc48U, 0xbd263dfd3c44311aU, 0xbbd0d2b03ddf08daU,
  0xbe680fe2be443cf3U, 0xbc3fe2f2bdb6409cU, 0x3eb2b19fbd7188a8U, 0x3eb6ae923ee1cc72U,
  0x3eef6b63bde199cfU, 0x3e9b000a3e4b5f07U, 0xbd0cdbc2be4b83f9U, 0xbe4f3432be8a2e5dU,
  0xbe8c2a33bee68a29U, 0x3d2626e1be35d60fU, 0xbc32fc183c8a7668U, 0xbda626403cdc4dfaU,
  0x3e0ddf873e849a45U, 0xbea84193be89eddeU, 0xbdcaa20e3e9a3529U, 0xbeb72018be2957a1U,
  0x3df607af3e1e8e01U, 0xbdc101223d6f499aU, 0xbe876743be41eb71U, 0x3d51cae3bd3fd734U,
  0xbf0626b73d4d608fU, 0xbf1a1e1cbefa919eU, 0xbc1c7b933d3ee47dU, 0x3cb13b803b49865bU,
  0x3dbb8402bcf465e7U, 0xbe073c693e878cdfU, 0xbe7d83c6be2b21c9U, 0x3d68c2c43d0794dbU,
  0xbe9d8d783d609288U, 0xbde3a7cebe7924a7U, 0x3d4fd8fcbe96324aU, 0x3d23c8f6bea6de70U,
  0x3db9598cbee6626fU, 0x3d5519bc3cc32e07U, 0x3c441758bc9efd43U, 0xbe2cdd8fbdae1522U,
  0xbc8c99253e146151U, 0xbecc914fbe8b6ab5U, 0x3e60c5963ecce578U, 0xbed5df7abdec26ebU,
  0x3e867e9d3e18c98fU, 0x3e7ff4ddbd062592U, 0xbbb54e513d18f851U, 0xbd3c35ec3b3f6722U,
  0x3ddc99af3e82c633U, 0xbe8e1af03ce02b9dU, 0xbd5511ccbc9f5b86U, 0xbde54fbabe359ee6U,
  0xbe73fb09bebc0032U, 0xbde556b1bef6752cU, 0x3e48ea483cdd6d3bU, 0x3e8f7e50be5b2aafU,
  0x3eb2798ebeaadf36U, 0x3ede65f1bef79657U, 0xbbe72d53bcbc9128U, 0xbd6fe5893dbd73c2U,
  0x3e8185f13c73295cU, 0x3e9df76e3e836cfeU, 0xbbf7e562bcea9c3aU, 0xbadcba963c2f6884U,
  0x3eadad9ebe9c3c7aU, 0xbe702f4fbea41fafU, 0x3e08e694bd239ba6U, 0x3cfbee29bef0082aU,
  0x3e03fbc43e3377d1U, 0x3d44d33c3e07c4b9U, 0x3d358d2b3e21a9e7U, 0x3e0c01ec3e621848U,
  0xbecaab1bbec658acU, 0xbeb86cc8bee4d4abU, 0x3d45928dbd933f9eU, 0x3dafd815bbc5d454U,
  0xbe86b875be09bb55U, 0x3e376453bd2bae10U, 0xbd165a853d00dc89U, 0xbde6865e3e69335aU,
  0xbe0468bcbe07bc3eU, 0xbc83b39e3daca863U, 0xbea88711bed9e12dU, 0x3e1947b93cff0841U,
  0xbdc40910bebab341U, 0xbe4e67703e20cd60U, 0xbda30b2ebb89d75dU, 0x3d5e7dafbd81b4afU,
  0x3e7ac0183de5f728U, 0x3c832ebe3dd623a5U, 0x3ef3e7443e7596afU, 0x3e5e5cac3dd1e7afU,
  0xbe1bfa62bd911be1U, 0x3d72cac03cda7730U, 0xbdf4becebe278a70U, 0xbb739537bd171e31U,
  0xbe805c963e9c49b2U, 0x3dfb3df73da25d30U, 0x3e53717b3ce095e3U, 0xbcb591a23e1e9ad1U,
  0xbe8143f6bcd1d8efU, 0xbe1f4ad23f083e53U, 0xbeaf06303dc88802U, 0xbe52c1c93e8f45a0U,
  0xbf1ce11c3e81e997U, 0xbe18891f3e3f0aeeU, 0x3db83d43bea3d476U, 0x3d6ef440bea46fceU,
  0xbddc41d6bdeb7a35U, 0x3d5832f4bde037c8U, 0xbda00f9c3d18d2aaU, 0x3d4f249ebd311e2cU,
  0xbdb1318dbf222933U, 0xbeb6b7aa3d00bf3dU, 0xbe34c2f4bf0003fbU, 0x3da0a0a2be68c88aU,
  0x3e876a4fbdcdfb39U, 0xbe58dd613e0a8bceU, 0xbd8eef27be2028f6U, 0xbe4526453cb7f9bdU,
  0xbd9f1e4d3ea8c342U, 0x3e0cb1c83ebe6ed7U, 0xbcdf5e54bc8400c3U, 0x3ce79cd6bdd7f816U,
  0xbda802fdbde2ce0dU, 0x3e5dffe13e4e1112U, 0xbdf1874d3d1586a5U, 0x3e93ee293e6b78c0U,
  0xbea9f2a9bde9be0bU, 0x3d909bb23e3aadacU, 0x3e226eaebd593c26U, 0x3d81d17ebca22f41U,
  0x3e0c0c323e13254aU, 0x3ea2a4d43e40d87cU, 0x3d0ab3f63c04951cU, 0x3c8257c73cde032dU,
  0x3d83da363eb5490cU, 0x3ad1f37ebe6d3345U, 0x3ecd51643c210a61U, 0xbdca4b62beb299c3U,
  0xbc0528cb3e26cbcdU, 0xbdbbec213d103b94U, 0x3a23e5bb3e71e4e0U, 0x3de6f7a13b7c9c88U,
  0x3e54efca3e5ffbebU, 0x3da7eb24bf110dc8U, 0xbc4db595bc5fe5e8U, 0xbd039608bd9c001fU,
  0xbd4c87723b7799caU, 0x3dfefde4bc807b79U, 0xbf00561bbd13afb6U, 0xbea938e7bdb179adU,
  0xbf0a8d573e81fbe2U, 0xbeb793fa3e30c0b6U, 0xbe84c60d3c7dee92U, 0xbe967f073e177818U,
  0xbed0106ebe516dceU, 0xbe220ac23d9dd1bdU, 0x3d0f5a383c3446d3U, 0x3d8eea513d80c148U,
  0x3ed06bf63e99f74fU, 0xbd0fd1c03e8d2bddU, 0x3f0e207d3e6363b8U, 0x3d2e96ab3e80c6a2U,
  0x3ddda726bd93effdU, 0x3d2bfaa7be78ecaaU, 0xbd8d732fbd487474U, 0xbd5a09cdbe18bef4U,
  0x3e9cd575bbeee9aaU, 0x3ea2ba3ebe065425U, 0x3c3cce7ebd229656U, 0xbcb3f503bd13880eU,
  0xbe464ef23debd007U, 0x3e9d3abd3d98d640U, 0x3e95df573eb3ccc8U, 0x3e36aeab3ce35874U,
  0xbdc83ec63eb0058eU, 0xbe19622a3d504361U, 0xbd2d691abe6c1e51U, 0xbd8c64cfbcd23fe0U,
  0x3e1d43debdfa33b6U, 0x3e47d913bc7eb267U, 0x3d8c6c39bce60125U, 0xbb8e4377bc8fb184U,
  0xbeb889943e93245aU, 0xbf03e36fbe0d16f8U, 0xbe8b098bbd261161U, 0xbec1f6a7bd91bdd4U,
  0xbdc70288be3468caU, 0xbdd59b5c3e0a5b46U, 0xbcfb65c7be93bbcfU, 0xbde3e61e3e077bd7U,
  0xbe786fc03e63250fU, 0xbdfe78273cd117daU, 0xbd7d22e43dd59c53U, 0x3c9446de3dcd3becU,
  0x3e950f293d5bc0a8U, 0xbdd172003da3ce80U, 0x3e9cf2debe3ba967U, 0x3e67aa8e3dc6cb22U,
  0x3e9c7a3f3d934746U, 0xbd8ec2903e3972baU, 0xbd453539bf3ccdb1U, 0xbed7edd6be5add1cU,
  0x3da072bebf3b9f2dU, 0xbe615304be33b708U, 0x3d768b623dcc316aU, 0xbcddf2edbc8e1571U,
  0xbebc3102bd953ec5U, 0x3da8cf193cb64a3dU, 0xbee1d5343e32441aU, 0x3d867644be4ad274U,
  0xbe255048bebbe145U, 0xbe0a604d3d8e2936U, 0x3e2671bdbf0c0929U, 0xbde957143dd6a30eU,
  0x3e4a38aa3db4f512U, 0x3edb39413e401891U, 0xbd04e495be00ec48U, 0x3db2904fbcd9cbe6U,
  0xbedd3e0abe15eab4U, 0xbd6a5edfbef5b63bU, 0xbf2c0699bdef5b89U, 0x3e27ffa2bea9f09dU,
  0xbef85505be5180baU, 0x3eadad8abea347e9U, 0xbebb29993db12d2cU, 0xbdb4fbcdbd4c1d3dU,
  0xbeff378dbe3f3e23U, 0xbdd38cc03dfe14d2U, 0xbc32a0163cc38c56U, 0xbd1da221bc6d003fU,
  0x3ec221f73e876a5eU, 0x3eb3c6683e05e270U, 0x3f08c6563e896a76U, 0x3e37db7a3e104a81U,
  0xbe367a7bbe207cc7U, 0xbe46c14d3d47fc68U, 0xbec94bf23e0337eeU, 0xbe451182be3fdfc3U,
  0x3dea391dbda1801aU, 0xbe193a8bbe83638cU, 0x3e4f37f03d2a1327U, 0x3d0afda73e06280eU,
  0x3d35c562be756d25U, 0xbf53d6b6bdb803d8U, 0x3e83d14b3d842191U, 0xbf682f023e8d97aeU,
  0x3e9462453dc5ebccU, 0xbf5b83a43e825b8cU, 0x3d8dc765bdf734c8U, 0xbec4fba8beafb4a1U,
  0x3daa67103e0c3e56U, 0xbd26b094be9169c5U, 0xbc632060bd3195ccU, 0xbd8c0c2fbd194d17U,
  0x3ef7ca3d3e84fe75U, 0xbec2b55ebe1512beU, 0x3e08f2063ecbfd7dU, 0xbf09d02a3dda049dU,
  0x3c49e818bd592d9bU, 0xbe502817be0e8fc6U, 0x3c93b614be315e96U, 0xbeb066c93ce5855fU,
  0x3d62f891bd6f9bbbU, 0xbebacfd4bec5f5b5U, 0x3db25b443d3a67b0U, 0x3dd59b953d381f29U,
  0xbe4ccc26bc2c0524U, 0x3cb349823d3e1628U, 0xbe67772fbeabbfacU, 0xbedf4b1e3e172146U,
  0x3d4d4c90bdbb7052U, 0xbe22df6fbde5017bU, 0xbe370f02bcd36387U, 0xbeeda4d8bd48fd81U,
  0xbe0645cebdc62d93U, 0xbf27be44be08550bU, 0xbd081e083d2ad61cU, 0x3ce1f5163dbe3f4bU,
  0x3ed90341bea17713U, 0x3ef0d6b93b677768U, 0x3ea6e867beadd462U, 0x3e99ba703d9b7ed7U,
  0xbe47296f3d575ee9U, 0xbc9ebe013de893e2U, 0xbdbf41a73decfa59U, 0xbe9ce6c83d2cd130U,
  0xbe56e771be36aa59U, 0x3e8c12fb3dc4155fU, 0x3e2e64b0bd49fea3U, 0x3dfa315cb902560cU,
  0xbe443e62be5ae894U, 0xbf116626be3910ecU, 0x3db434223d9317f5U, 0xbe96119cbd6bdfdcU,
  0x3e20458ebe20b1b3U, 0xbf0a7c9ebd819d7cU, 0xbc97ce413da8147fU, 0xbe094dbebe5f9705U,
  0x3e47008cbe1d8de7U, 0xbd8c557cbe341e17U, 0xbd3d87e93d66ea76U, 0xbde511703ce615ddU,
  0x3ea19c223dc0be99U, 0x3ded14563cbb5d4dU, 0x3eccd35a3e8ea0cbU, 0x3d7df2573db404efU,
  0x3d6500873e4f3882U, 0x3e1c87aa3e0789e1U, 0xbd7a09fe3e538d59U, 0x3c33f5643dc3e477U,
  0x3dab8b0d3e48b6f8U, 0xbe24da2b3f1894b3U, 0x3d921456bc1837ccU, 0x3dadcecebdcf4ce0U,
  0xbe998c02bdc48bf8U, 0x3dde5cb03d102a53U, 0xbdd21015be1e3439U, 0xbe4701cb3efd796eU,
  0xbacc6081bda2d155U, 0x3e49a3ff3ed5d560U, 0xbe73a1ac3e2463b1U, 0x3bdeedcbbe3db29fU,
  0x3dd6b8873d80b7a1U, 0x3d9d61febcb96011U, 0x3c32ce7dbcc6cb72U, 0x3da86f5b3d166f78U,
  0x3f1785513e875addU, 0x3c779e6f3e7974b0U, 0x3ef351edbe220b0eU, 0x3de2a5683ec3bb12U,
  0xbe1519eebe077ea4U, 0x3d45a78fbe74250eU, 0xbe54dd3a3dcb4db4U, 0x3bd64158bda5477eU,
  0xbe84878c3e70263dU, 0xbe306a97bea89f9cU, 0xbdadef8b3d1bf14cU, 0xbdf8b59fbe425066U,
  0xbe77940f3db77c4cU, 0x3c3dfa2b3e80e327U, 0x3e2a47133e4157b5U, 0x3e7801283de3d5a6U,
  0x3e3f546b3cd4ce31U, 0x3e952b1d3eddf422U, 0xbeaf1c01bc45bafeU, 0xbe672fc63e27e980U,
  0xbea1224bbda34f59U, 0x3d708765be3bcceaU, 0xbd5bc0b13cac6878U, 0xbdb329fd3d9e71f9U,
  0xbeb1c6c03e6383f5U, 0xbe2837fdbeb3aca0U, 0xbed20e13bcb25844U, 0x3e173197bef58cc6U,
  0xbe9f14993cf178f1U, 0x3e0e6137becf35fbU, 0xbc80501dbe2d6753U, 0xbd48de4bbf0a00b6U,
  0xbeb58a3ebeb2069fU, 0xbccfb282bea367c0U, 0x3e48019fbcca3572U, 0x3e1061f6bdbfb019U,
  0xbe4d1a27bdbc8049U, 0x3d4af99d3ea06552U, 0xbe1a1155be6a7abdU, 0xbddbb2633e234c2aU,
  0x3e00cbc03d9db8fdU, 0xbd694e453ea2c450U, 0x3e81b93abdb71848U, 0x3e377ee6bdf44ab0U,
  0x3eaaa2953e12b919U, 0xbddd1a54bd82d8f9U, 0x3cc635cbbdae8290U, 0xbda7f883be106d1eU,
  0xbf1f7a0a3dd59b21U, 0xbd337265bd715e7bU, 0xbf182b16bd61b2edU, 0xbca0bb7ebeb4c3e1U,
  0x3d4b62d53dc42ab1U, 0x3c206c6cbddec4dbU, 0x3dd6bb20bd5a78bbU, 0xbc1d45fe3df053e3U,
  0xbf3e16e6bd65e61eU, 0xbc4af812beaee045U, 0x3d26b162bd17b6b1U, 0x3e0623ff3d7c0e0fU,
  0xbebf8e3a3da3cc90U, 0x3e91ab683e144a23U, 0xbf1c69293cea2b7eU, 0xbd0a56ffbda3b5aeU,
  0xbf0cc3d6be6534efU, 0x3e46e7ac3da46cb1U, 0x3dfa17223998fc3cU, 0x3b53bfc23d0e44f1U,
  0x3e9702ad3ddfd755U, 0x3e0aa31bbdc15736U, 0xbd57ae663d5b1484U, 0xbcc35c7abc42cc1dU,
  0xbf2853f7bdec1115U, 0xbe1354f43e6630eeU, 0xbeabf9ab3b63322aU, 0x3cfd63513d829982U,
  0x3ecb31b43db25520U, 0xbdc5cc11bdb8c2fcU, 0x3e0c86a93cc5f9e1U, 0xbe6f23acbdf49b8aU,
  0xbe6e68fc3e7fe660U, 0x3e1171ac3e084884U, 0x3dbb9edb3d4e32bfU, 0x3ddd688a3cccb3d7U,
  0xbd37084d3e99a86cU, 0xbeeb02b6be541ac2U, 0x3d954bfd3e96c15cU, 0x3e6e26b5bd0690d0U,
  0x3eb281f0bdbe8551U, 0x3ea72a623ec55786U, 0x3da9c2a4be3bd014U, 0xbd56d57bbe7512efU,
  0xbe3eee8ebdc23cecU, 0x3d3b568fbebc335cU, 0xbdb513cabda5d835U, 0x3cd119c1bdd555d3U,
  0x3e17590abe30beb2U, 0x3dca24a6bef14a24U, 0x3e8b4d243e2338afU, 0x3ef81401bec22cd0U,
  0xbcdeb5f2bcb27f89U, 0xbe92e1adbe69ced5U, 0xbde46fa0bd86b35aU, 0xbe830487befe806dU,
  0x3cf5b5053dde0520U, 0xbe78b83cbf55bd69U, 0x3e0bf1c13de6364dU, 0xbe4cbd813d95700eU,
  0x3d2213773e04a565U, 0xbe076cd43e294ca4U, 0x3ebe0e773e8a7ffcU, 0x3ea43e8c3c282afcU,
  0x3ea053783e48c595U, 0x3e8bf11dbe466a32U, 0xbdfd35493a82323bU, 0xbdc713bebe5d6d42U,
  0xbe832469bdfb016aU, 0xbd703c83bde16bf8U, 0x3d17c1f13e1e3d0eU, 0x3b8165a4bd304944U,
  0xbe36bda8be0f8204U, 0xbeab18cdbf30ba6dU, 0xbc5c4a9abe133367U, 0xbda1e838bf1f1772U,
  0x3cb221103d29e0d4U, 0x3d7866213e1a4babU, 0xbe176543bda8bf8bU, 0x3e25ac983e3547a5U,
  0x3da02b8e3d755d2bU, 0xbf0f609ebee89889U, 0xbc5b6048be039193U, 0x3d977b49bd058082U,
  0xbdeb54c2bdfa491aU, 0x3dc6aad73e3d3732U, 0xbeb66466be3400a9U, 0xbe1ea79fba33120aU,
  0xbe7d0985be9c8c29U, 0xbe9adce7bdf65ad7U, 0xbc8d72843e7ca955U, 0x3dfcdd783deac78aU,
  0x3e1a90563dd6f662U, 0x3e14658a3e1471a9U, 0xbd1057f53c9009efU, 0x3d245c3a3e84650cU,
  0xbdf615a83ddcff4eU, 0xbea2e57abeba97d8U, 0xbdd2aa063e3794ddU, 0xbef087b0be8adcc3U,
  0xbdb26cdfbda2cb78U, 0x3e0ba6623e4ecf95U, 0x3e57303c3d5ddc1bU, 0x3df576523cb7a0e4U,
  0x3e705194bda9f52cU, 0xbe8a8b02bdbb1881U, 0x3d382539bd8be740U, 0xbce9ce433c6186ccU,
  0x3e1c2a47bd588d7eU, 0x3e807e2c3d5e9256U, 0x3da572c63d4f07edU, 0xbe2830d73e316cbcU,
  0x3e8893053dba96baU, 0x3e5554073e44dfccU, 0x3d4990d7bd42f972U, 0xbe22c9ed3e81d4abU,
  0xbe002bbe3e8106e3U, 0xbd8be4413e600ff8U, 0xbd4bc9ca3b866f9cU, 0xbc97dc1f3d8cce9fU,
  0xbd707a60bef69e6fU, 0xbd1ee84bbeb38a7eU, 0xbd341f64bf30e05dU, 0x3c5a0e21beb563c1U,
  0xbd8d51bb3e04a715U, 0x3df1c807bbb74ca7U, 0x3e79624fbc6b510aU, 0xbd8ae44abd994628U,
  0x3df58a45bec6e70dU, 0x3e8ab2d4bebf29c5U, 0x3c62424dbd184848U, 0x3e53e419be8498e9U,
  0x3d1b4ad0be1e6fefU, 0x3f1fd6e5bdf98730U, 0x3dbf93f13e05cbc6U, 0x3e044993be2d6c27U,
  0x3d5e3ef4be5c94bbU, 0x3d9f145abe3fcac7U, 0xbdc0dfcb3d0d471dU, 0x3e6e2ba2be8e2ce2U,
  0xbc4ed9b03d5dc029U, 0xbe2fad3c3d9ee833U, 0xbd1dc7ffbd3f31b3U, 0x3cc4fb0ebe2093edU,
  0xbcfd4160bb8214c8U, 0xbf1498783c581161U, 0xbe3d8dc33ebfb547U, 0xbef4cf9dbe5458a2U,
  0x3e61609e3e78845bU, 0x3d81d846bd631375U, 0xbd99849e3e56a709U, 0xbda181ca3e8a1591U,
  0x3e64dccc3d21de54U, 0xbe561f2cbda5eeeaU, 0xbc70275a3dbb023fU, 0xbda4be303e473813U,
  0x3e72f34d3e7eeee9U, 0xbeb46f5ebeb770e7U, 0xbc64c3eabe647402U, 0xbeaca376beb43722U,
  0x3e2651933d11cb8dU, 0xbce3b7b7bd5fc597U, 0xbee09b933d1da3dbU, 0xbd9906d53d8804b4U,
  0xbed595623df9a939U, 0xbe9a74313e58199bU, 0xbc875b8e3d9a2a82U, 0xbdcc4b7bbe00d11fU,
  0x3c8f1f2c3ef23968U, 0x3ca9912ebd77279cU, 0x3e87300f3e991fabU, 0x3e96e55a3ce76294U,
  0xbef0fc4bbe9afb37U, 0xbe3160c33e0b9854U, 0xbe98d57bbe31126bU, 0xbe45d9ef3dc75f5bU,
  0x3e770bc9bdd0e85fU, 0xbecfb2ea3e8f266cU, 0xbd6cbb113bbb9825U, 0x3e14bf513e535882U,
  0xbcf2982abf5c33c3U, 0x3d74f81dbd011246U, 0x3dc3c0b4bf989e82U, 0xbe72e7b43d0f908aU,
  0x3dcb2974bf9769cdU, 0xbd7320003cefbb14U, 0x3e92b7fb3d8c0354U, 0xbeae38883d295955U,
  0x3e5f8b013e86de77U, 0xbe9aa524bacda279U, 0x3d2803b1bac48c71U, 0x3d38bcad3d3b6280U,
  0x3ddb5a123e609481U, 0xbeaa5dea3c49081aU, 0x3cdc47efbe111beeU, 0x3c8ab7d73e55dd89U,
  0x3dfab0983e0bc63bU, 0xbe675d0a3d88fd54U, 0xbc3283823e47e8d4U, 0xbdb54bb43e11aa1eU,
  0x3d80928a3ea389e9U, 0xbd218be33f0d6b8eU, 0xbddc9f5b3dec7b1cU, 0xbd538693be10fa6eU,
  0xbe9e39523d511618U, 0x3e269f08bd0febd4U, 0x3e13b6babb54517aU, 0x3e95d763be34decbU,
  0xbd628b74bddaaccdU, 0x3d057749be4f8c7dU, 0xbde9c993beac64dfU, 0x3e52f84b3c181c68U,
  0xbe1bd4df3cfd12f7U, 0x3d508341bcf95e07U, 0x3d928ea3bc68866eU, 0x3d652fb83dc8e6edU,
  0x3dffb0f53ef4b294U, 0xbdcce19a3df9223aU, 0xbdc300783e9802a1U, 0xbd1f7a0e3d7abe0aU,
  0xbe93106cbe66f796U, 0xbd95e76abe4879deU, 0xbe2a49d33cbb3a43U, 0xbde1449bbc2e27abU,
  0xbea659273e3072daU, 0xbeb2301f3dbcadffU, 0xbe3d6a27bcbdba9aU, 0xbd00f3efbe5aaf3eU,
  0xbddf8fd93e8d2b27U, 0x3d696abfbd70965fU, 0xbe826d0b3eb2d860U, 0xbcd5199ebd779291U,
  0xbe0bef3e3cebb4c4U, 0x3d1071ba3c1cdf8cU, 0xbdaf9e7abe644806U, 0x3e0de8cabdb898b2U,
  0x3c129d76bd663bf5U, 0x3dac4f00bdab62ffU, 0x3e1b39eabcf33ba8U, 0x3dbb31f13e0fadefU,
  0xbda5c70f3e07af09U, 0xbe19de73be08ff67U, 0x3d9e2bc0be214245U, 0x3e55f79bbdb3a238U,
  0x3d7932303dfe4377U, 0xbddd78eabe36b96aU, 0x3e23c6fcbd3654c7U, 0xbdefeb82bd0457c7U,
  0x3df537a7bc3a5e2dU, 0xbe27dab9bec43f6bU, 0xbeb5e0433d6a6de1U, 0xbd4d8850be04e604U,
  0xbeb1fb193d8e333bU, 0x3d8ad844bed261c3U, 0xbef5bafe3ded0450U, 0xbeafbf16beacef0eU,
  0xbf07d4463e0139f8U, 0xbeb1b741bec9f6dfU, 0x3e29716bbce7c044U, 0x3cef67ff3d920898U,
  0x3e62c37ebe07e3dcU, 0x3df8aeba3de9033bU, 0xbdeb6640bdcdf32fU, 0x3c4352553d6886f4U,
  0xbe8f256d3da866f7U, 0xbe3c5fea3e039fdbU, 0xbdab5724be59bac0U, 0xbe4192ad3e105a7fU,
  0x3e360c213d5ea9d4U, 0x3eaacacd3e9bc40eU, 0x3e26da383da7715fU, 0x3ea691653dcc3053U,
  0xbe5bca293d529157U, 0xbd552a0f3e2ab6bbU, 0x3e8b4cd23d28ad26U, 0xbd8cfb063d1b617cU,
  0xbdbca2c8bdf3bcf1U, 0x3ea0b64c3d44bcebU, 0xbef537023daa88c4U, 0x3ee60011be2c6302U,
  0xbe2a28bd3d840da8U, 0x3ec6b170be9586e8U, 0xbe74685bbdd21223U, 0xbd840ffabcc81a9eU,
  0x3d2a0b47bd8cbb76U, 0x3df4241e3dcc9d03U, 0xbc9f910abd0dc5d4U, 0xbc3c502dbc84a5caU,
  0xbb9eedf93eb807fdU, 0x3e89c80b3df021a5U, 0x3dcbc7eb3eb1fe1aU, 0x3be6de3abd19aeadU,
  0x3c3ca5b9bddccc83U, 0xbe81c3503dd435ecU, 0xbd01aba83e279970U, 0xbc90adf43e814838U,
  0x3e65d06c3ec34b65U, 0xbd34711c3d181ff0U, 0x3beb91183cbb89b8U, 0x3c43a2a43c333cd6U,
  0xbd0ac6ed3e76bc12U, 0xbeae5d92bf39c9e3U, 0xbd8a4b483e12a01eU, 0xbd50a6bebf01e40cU,
  0x3e537521bcb2fbe8U, 0xbe17604dbf05dbf4U, 0x3d29fce43e1e7ad3U, 0xbef0235dbe27205fU,
  0x3ea16043be74fdc9U, 0xbd59ca0bbc995059U, 0x3d2ddb5cbd6da188U, 0xbdaa0408bd811535U,
  0xbdd0184abe04a39cU, 0x3efbeb73be5230d6U, 0x3d526635bd9ee5f7U, 0x3e76297cbf1cedc2U,
  0xbdc9c10b3dfc1d25U, 0x3e87f5913e096fe1U, 0x3e740d993e0edec8U, 0xbd1bda8fbd96c9a8U,
  0xbb8c746bbd0c4829U, 0xbd928403bf5b0a98U, 0xbd7296753e0895f6U, 0x3c5d0fd5bd4691d4U,
  0x3e48a2553e5fb145U, 0x3e3487f73e889f5cU, 0x3f19896c3d82c59eU, 0x3d87ac263e96551cU,
  0x3f19ac7a3cef606aU, 0x3dd687c73db3ac34U, 0xbe0313cfbe468711U, 0xbcc08fd8bef94119U,
  0xbe436777be7611abU, 0xbe655ea7bef797b7U, 0x3d19767abce09c05U, 0x3d0b99653cea4a2fU,
  0xbecf1fcdbd9d0d3cU, 0xbd88f910be21e7dfU, 0xbf353891bd5feecfU, 0x3dd519bcbe22c2e3U,
  0xbdd46f0e3de126f8U, 0x3da3ccd1bed47667U, 0xbdf0ee4abe314e3bU, 0xbde8d0c5befccd76U,
  0xbf1d1d2ebd5eddf2U, 0xbe1b212ebc9980b9U, 0xbd4a8fca3da618efU, 0xbd4acc71bd4784dbU,
  0xbea273a1becbd57bU, 0xbe18ef573d429e48U, 0x3e6fc52abe96adffU, 0xbda01b29bb2825efU,
  0x3d742077bebcf521U, 0x3e4515f03c8879f6U, 0xbf3f0667be6de68aU, 0x3d7ab26dbede6f35U,
  0xbf1879e83d67303dU, 0x3e549fc5bd1f2196U, 0xbd3554fdbd508a58U, 0x3b4fb50abccda5b0U,
  0x3f1191f23e74943eU, 0x3e941c97be7e87fcU, 0x3f0947d93e3c499dU, 0x3c8df22bbe4e75eeU,
  0xbf3dacea3db78030U, 0x3e3b5caebeb707c1U, 0xbef364af3c1ed336U, 0x3e051493be38e64fU,
  0xbf310e4a3e20dab8U, 0xbdecb12ebf1d07a7U, 0xbd36bbd4bd0ef8dbU, 0xbd2b43813d122125U,
  0xbdad4a113cacb0d3U, 0xbea1adf23e273604U, 0x3dc789a93e84bfabU, 0x3d17e5edbcfb2fedU,
  0x3e40a66b3cdf83b2U, 0x39c0357d3ead4835U, 0x3c333c1bbd2185e3U, 0xbf0b1269be7fd939U,
  0xbd91aee5bea70dcbU, 0xbe21fcd63d32fb47U, 0x3e00a75bbce22c34U, 0xbae76d9839ada353U,
  0xbe1a0c2fbe69086bU, 0x3e0a47d9be22c746U, 0xbd34de45be97b60bU, 0xbe107201be248b42U,
  0xbe6251133e4fcab7U, 0xbeca7198be87bce5U, 0xbe6308c5be2ecc5bU, 0xbe1ffc96becf7c24U,
  0x3d2da7163e775268U, 0xbe57ab64be151992U, 0xbdce9b123daa8471U, 0x3da32a4d3e12d974U,
  0x3c069bc8be6949d2U, 0x3e868dc0be078d65U, 0x3d81f970be0aad2eU, 0x3e8a295b3dd22b2fU,
  0x3bf80c02bdd77fe0U, 0x3ea3cf733de1785bU, 0xbe1050d63d4a22c8U, 0xbdbe22cc3dfca315U,
  0xbec47bb83e9e0323U, 0x3d6b44efbe1f46e7U, 0x3bc19f95bcd3a68fU, 0xbdcad2c73d859e58U,
  0x3e09f961bf0d2b4bU, 0x3e83943cbd9716d6U, 0x3d05cc2bbf210042U, 0x3e1a2d19beb4b2a7U,
  0x3d039f083d9f162bU, 0x3e36d4e2be9bbf45U, 0xbe35bec33e282839U, 0x3deed822bda6a592U,
  0x3e25294ebef70af9U, 0x3dac712bbe739bb1U, 0x3ca9616abb888b85U, 0x3d526f493d903ecdU,
  0xbdaec33e3e52703bU, 0x3e5ca0f93e23b43bU, 0xbd05fb803eab0a7cU, 0xbe632685bea1df87U,
  0xbeb042333e36d2f8U, 0xbec7fd23be5c3173U, 0x3dd66be63a27a2b0U, 0xbdc885d2be876a85U,
  0x3df549723c965474U, 0xbdd8b0b53cc84fc1U, 0x3e3906c2badfba28U, 0x3de6a1573e092280U,
  0xbed2e976be4e2b7eU, 0x3e5595c6bdb18d8bU, 0xbf010ff73d8ac63aU, 0xbe068fbbbe1c11f4U,
  0x3c97a27a3e7e4828U, 0x3dce18a8bd8f0017U, 0xbe5ce32fbd79d0d5U, 0xbc99da483e005db4U,
  0xbd8766ccbe4ad31bU, 0x3f014acd3edb8d41U, 0xbdb5a62f3c941c45U, 0xbb60405bbc6f6f27U,
  0x3eb23e9ebeeb0815U, 0x3e80bde2be039560U, 0x3e2de731beba17ddU, 0x3e4154f7be7df5e9U,
  0x3ccf4874beb10666U, 0xbe25cd89be652ffaU, 0xbe3c5e43be4a8095U, 0x3db0f2f5beadb450U,
  0x3d5a78d3bed74865U, 0x3de8964c3d228cdcU, 0x3e1145183d32fdb4U, 0x3d8d397d3d8a2affU,
  0x3e7686763e658c72U, 0xbd22741f3e9f55b5U, 0x3ebb9a973e96804bU, 0xbd368e5abd5de775U,
  0xbdf86cf9be25fc92U, 0x3d0ab52cbc968f44U, 0x3bd70dc2be48db6dU, 0xbddd9a56bdef9884U,
  0x3e5f33ffbe57b121U, 0x3e0725523d5b2d4eU, 0xbd609ed2bdb1e4b8U, 0x3ca4ceb13c1c5fe3U,
  0xbe92b0313d5a41c1U, 0xbe093a243d96ea65U, 0xbdb2c2f6be55822bU, 0xbddd8b573dc48fc5U,
  0x3ea84b2b3dda0f3dU, 0x3ca1bfb93dbcc43eU, 0xbda98101bd651e3bU, 0xbe33852abe7a953eU,
  0xbd5e34083e2e27a1U, 0xbd2ca68fbd9ea9faU, 0x3b34607bbd19eee7U, 0x3d0ff182be2a0c64U,
  0xbe63094dbea2f15cU, 0xbd9d72b0be930de7U, 0xbdeefdc8bec0f6a7U, 0xbe973deabd8bdb18U,
  0x3dff9d74be11a90eU, 0x3e771cbe3d6b441fU, 0x3e0f0c593e408b9dU, 0x3e22d2523e165346U,
  0xbd5010a9be47560cU, 0xbe0e2bae3d47dea7U, 0x3b768a4ebe251113U, 0xbe40e7c43da8a750U,
  0xbe851580bc8b6160U, 0xbdbe0cd8bf0cb144U, 0x3e81bbc1be10ff5bU, 0x3e8ae330bf0e4b68U,
  0x3ec4f50a3dd22c39U, 0x3e592aedbee06037U, 0x3e69a97c3c3056dcU, 0xbdf5052a3da7c74eU,
  0x3e21e6d73e58e2a9U, 0x39974dfabdc7bcc9U, 0xbd382d45bc18f1d4U, 0xbd1d59cdbdfcd296U,
  0xbe0c33d13ea1b59bU, 0x3e22ccb4be4340e8U, 0xbe994c46bdfe7440U, 0x3e78aea5be03278bU,
  0x3e2858483b256404U, 0x3e201381bd961f3bU, 0x3dd70286be68bff8U, 0x3e75fafa3d477f76U,
  0xbead319b3e62e8efU, 0x3e1432a3beb7542dU, 0xbcd8fd52bc0e7b4bU, 0x3c8068ee3e232ea5U,
  0xbd89c2383d720653U, 0xbebc125a3e2d4250U, 0xbe9e9bf8bed27c5cU, 0x3de13aa33dbfe858U,
  0x3d416cb2beb3e6c0U, 0xbea26395bd30b499U, 0xbe3f3cd8be81f4abU, 0xbde74bdd3e47c371U,
  0xbec3c3fbbcaacc9eU, 0xbe2bd253bd8ff3c2U, 0xbe57a61c3d5d2f69U, 0xbd48a3813e6bcdd8U,
  0x3e751ac4bca3280dU, 0xbdac4d54bf036eb4U, 0xbecf398cbd549f4bU, 0xbd87eb533e09cb0eU,
  0x3b40f5b03e7d079eU, 0x3e933715be44abd4U, 0xbc9fb5be3d4e596aU, 0xbe60a72e3dd43b19U,
  0xbd7dd1393e0015caU, 0xbee05884be820d94U, 0xbe4cb80e3e2702ccU, 0xbe725899be839ae6U,
  0x3b4b779d3e4f2c0cU, 0x3dfdc7e0be84e4cfU, 0xbeeb814ebdec24fcU, 0xbe3b2f7f3ea224e9U,
  0x3e5e6ef4be281d94U, 0xbe109c2e3e475ebaU, 0x3e4ee5483c03b990U, 0xbddff900be044d82U,
  0xbe9b91bf3eac5b70U, 0x3e109d263d2ebca7U, 0xbcf73cc33d892725U, 0x3e9f20423e769aa6U,
  0x3e77fd44becd1178U, 0x3e7f7362bd513a84U, 0xbe9795c23dd3b663U, 0x3c8293163e457ad8U,
  0x3e476b493e7b4e05U, 0x3bf8007ebd9c1685U, 0xbddd81823ea44399U, 0xbd5b492d3e0b847fU,
  0xbead11b43dcad134U, 0x3cb0aee3becffcacU, 0xbe770597be120d49U, 0xbd57d9d23e39abc0U,
  0xbed65974be67f632U, 0x3e9177da3e27fa30U, 0x3e017d733d498e67U, 0xb9a361d1be854395U,
  0xbdc2cf3cbe5d4f56U, 0x3e2a455e3b9191e9U, 0xbd9f63953e43a4a4U, 0x3ea15f7ebcbf7cebU,
  0xbe01d0c6bdf4fb40U, 0x3e0b9f6f3c040f7cU, 0xbe733f58be6d786aU, 0xbe080fc7be4fb1f6U,
  0xbe212d273c9ad210U, 0x3e90f38a3d8d569dU, 0x3d65a235bdb705dfU, 0x3d506d01bde6f88fU,
  0x3ea9579b3e611de2U, 0xbecd1b1b3bc92be5U, 0xbe1d65a33e4927e1U, 0x3e07df353e6f8644U,
  0x3d8cdf9c3d1e8908U, 0x3e45e339be84af4aU, 0x3f07db44be699a82U, 0x3a676ec13e84bb21U,
  0x3e980c633e650d75U, 0x3deddb873e27792fU, 0xbec017abbebe1a6eU, 0xbeaf45f7bd9ee824U,
  0x3ea54efa3e880f04U, 0x3eceeb95bdcda187U, 0xbe952085be7ad47cU, 0x3c19afdc3e0a9649U,
  0x3f0913203a115daeU, 0xbe6a12b7bdde0e4dU, 0x3d868b183e8a15adU, 0xbd8c10c83e764bf4U,
  0x3e5a483c3d876481U, 0x3ce75f1fbdc3257cU, 0xbdb298ecbe76655eU, 0xbea9f56d3d19845dU,
  0xbea923283e92701cU, 0x3ecf8179bee540c1U, 0xbc6899d33e5427b6U, 0xbe8928513eb7b280U,
  0xbed257893e1bb01aU, 0xbe41e480bd719f77U, 0xbdd966bf3de38139U, 0xbe8a7253bde51039U,
  0xbe00e3c23eb5d9f6U, 0x3d208a99bd9e849aU, 0xbc5346c33dc6a1dfU, 0x3db47a473ec33029U,
  0x3f1aff56bf1242edU, 0xbf23bf84bea5b96aU, 0xbd758c233cbe1265U, 0x3dc02ec43ede9b1fU,
  0x3e007d38bd09ef2bU, 0xbe78efc2bea9c905U, 0x3e97bfa73dae2866U, 0x3e9ba0e43de1a654U,
  0x3d8db6dabdde4661U, 0xbd510b59bee8d9dfU, 0x3e76ba41be8ff88dU, 0xbe0a2338bd5c6284U,
  0x3e45fae9bcb2ceddU, 0x3e1da0f4bed60b28U, 0xbebb4409bd7cc4ffU, 0x3dfe7966be017878U,
  0xbe0d4faf3dda05e7U, 0xbf247c843da58c91U, 0x3e8a3e4a3ec3516dU, 0x3e26b6a7bdaf4557U,
  0x3e9eac77beb0b20aU, 0x3e4005e8beafbc97U, 0x3d9cce2cbd05f675U, 0x3f3eca863dbe6208U,
  0xbe0c9c943ec7fc99U, 0x3e1e6a263e341512U, 0xbd284d88be4835dcU, 0x3e18c0b73e7c1835U,
  0x3d72f4cdbe3def2fU, 0x3e1cb4d3bde3f42bU, 0xbf238c50bea7618cU, 0x3dcb0e4dbed16100U,
  0x3e84f813bd12debeU, 0xbec92f5bbdf884fcU, 0xbe08446a3f0febeaU, 0xbeacc8c2beb73862U,
  0xbe2fd4efbdbd45feU, 0x3e176fe13ee01debU, 0xbe47ba9bbecca496U, 0x3eb8ff073e74a8f8U,
  0xbea873f73d755999U, 0x3f12d6223c41bcc9U, 0x3f07d274be66b4c1U, 0xbf0e67693c555c57U,
  0x3d1bd26bbe801131U, 0xbe633b11bdb59400U, 0x3dfd6b79be2e54d1U, 0x3ef3fd81bebb76e6U,
  0x3e9fc4983e1017bfU, 0xbf2ab890be687573U, 0xbe15ba0f3f03ab58U, 0xbd123a48be57eccbU,
  0x3eedad4fbe38b609U, 0x3ec3b4a43e925c60U, 0xbe8c05aabe6c3a0dU, 0x3e848b1cbe30062eU,
  0x3ec354073e113925U, 0xbec16df3be0bc989U, 0x3e988ecdbde4eadaU, 0x3e7f04873d3d029bU,
  0x3df764363edee2baU, 0x3e421f4fbef1c762U, 0x3e9b19d03dcf12a3U, 0xbea05dc3be102957U,
  0x3e8a867f3e8ee598U, 0x3ea275763e66fbaaU, 0xbe0074723db615f2U, 0x3d952072be434833U,
  0xbe0cd299bd9d8473U, 0xbe499825be9f140aU, 0x3dd8ffb03e668380U, 0xbe4700febdcc614cU,
  0x3ecfdb893dffca16U, 0xbe288fdc3e5c37baU, 0xbf0083a7be877650U, 0xbec43d5abb3f9074U,
  0xbf00d7d23e2451cdU, 0x3edbf24e3ea583d3U, 0xbdcbf872bd881422U, 0xbecd97e3bdd838e8U,
  0x3e4427b8be868c33U, 0x3d3e22573e243fbeU, 0xbf1eca443e88f73aU, 0x3e50a2dfbe7e10d0U,
  0x3e73b48ebd6f2b38U, 0xbcaee91bbeeaad82U, 0x3e284b22bd98ef35U, 0x3e3bd049be3d4810U,
  0x3eab6eabbeb061abU, 0x3e33d639be39c344U, 0xbe3ba7ff3e1ee33dU, 0x3e4f3616be191fdeU,
  0x3cc57c34bc27e50fU, 0xbf3716d23e8097ecU, 0xbc2224f43e2b24b3U, 0x3e9030423d546444U,
  0x3e3ee1443cc62c96U, 0xbd385f633dd5397bU, 0x3d0802dabdf15fadU, 0x3dec7ad43ecc2b11U,
  0x3e4ad39d3ea78af6U, 0xbe6f2cf6bd976ba7U, 0x3c623a313e4d32d3U, 0x3eedcd113e6d2020U,
  0xbe11b791be2d939cU, 0xbcbab9f8beee0604U, 0xbe1de511bc25097fU, 0xbee094623eacf14cU,
  0xbe4873e4be11ba04U, 0xbe84872abcabf627U, 0xbd802a663ed48b96U, 0x3e2c1089be4db3fcU,
  0xbe5f52cebe174436U, 0x3e37dda33da731a7U, 0x3da312c73bc5e418U, 0x3efe8f80bdadde5eU,
  0x3df68379be72354fU, 0x3de2ced53ea3bb27U, 0x3eae155b3e43e0f4U, 0x3ea587aa3c737ef7U,
  0xbd6f73ec3ee1b0c2U, 0x3c1f123a3d92d14aU, 0x3c78db55be8ea4e5U, 0x3e59d6dbbdb14545U,
  0x3ea43aa7be1e39baU, 0xbcb0fe7c3d30f395U, 0x3dcfe9583cc69095U, 0x3d5b968e3e35886aU,
  0x3dad104d3ecab80bU, 0xbd4e6fa23e171180U, 0x3e22d9f73db3a832U, 0xbdeaa9e63e17a1fdU,
  0xbb007dde3d8305bbU, 0xbec7be343e91c29dU, 0xbebae1e8bedcdeecU, 0xbd9147d0bc0f5514U,
  0x3edf281a3ebaf82dU, 0x3e2be3c6be953149U, 0xbf00e85e3cc4ebd5U, 0x3d5639b53e8d8fcfU,
  0x3efa23de3dc5fdd4U, 0xbe3d8837bc909b8aU, 0x3eaaf4523eaaf669U, 0x3e793ba23e639b0dU,
  0xbce53b493e367e3aU, 0xbdb87b4fbf02ce6bU, 0xbed3dc2abc10b874U, 0xbea06cd8bef8612eU,
  0x3e5c422bbdb28947U, 0x3ea551853c8850bdU, 0xbf1c0c43be46cf8cU, 0x3e25132d3b3c8245U,
  0x3e8e1d63bee47587U, 0x3d796504be0ca2ebU, 0xbc910d2dbc3ed9a1U, 0xbcfdada1be8d7251U,
  0xbe6d3fb23e0d2671U, 0x3ebeb9f3bdbfa95eU, 0xbe8f46fd3d24f8a7U, 0xbef46ffcbdfff8ecU,
  0x3b11de2d3ebca2fdU, 0x3e4b77453e1143e8U, 0x3d0c19b63ef8a120U, 0x3e37fd9e3d594b88U,
  0x3d1b8be33df098feU, 0x3e5ee9f7be5b42acU, 0x3d9cd57e3d2df330U, 0xbe3d6bec3d8a3654U,
  0x3dbaeb0abe09b765U, 0x3dc90b29bec6495dU, 0x3d7c0d0d3e1bf648U, 0x3dff3e9f3e6f725bU,
  0x3da920c5bebfc3aeU, 0x3e7a65843e490addU, 0xbe21fb3dbc841d25U, 0x3e669592be30adbbU,
  0xbd069059be00d71eU, 0x3e6be3a8bd01e71fU, 0xbd9bf8b0bd9d4e3bU, 0xbd43e9663eb90128U,
  0x3e98a8633e3f811eU, 0x3e35dfe3beffbc76U, 0x3eb7856e3d48c63fU, 0x3db8a22f3c759829U,
  0xbe286b843eb0cf6fU, 0x3da517dfbe26639eU, 0xbeda598ebe42afddU, 0x3eec31d93e7bec47U,
  0xbe021933be29b3e4U, 0xbee6220cbe3e9292U, 0xbdca0afdbe721eccU, 0x3dc567203f11e8d0U,
  0xbdf244c0bf045a7eU, 0x3f18ec273eb294d0U, 0xbd925278be147a43U, 0xbcf3add9be8ae0f5U,
  0xbe10fc9b3ec8ed4cU, 0xbeda418fbeb2dfa1U, 0xbd0f41d8be91dfc4U, 0xbf06c15e3d7237f5U,
  0xbdd1a47cbe88818eU, 0x3e6fb842bf1c43bdU, 0xbe9e12a33e23aebaU, 0x3de2a7393dd8646eU,
  0x3f0ea9a93e8f4308U, 0x3e28de6fbf10878bU, 0xbea3b34f3d98612bU, 0xbea64ddc3efeb916U,
  0xbe157ea63e0073faU, 0xbe1e37483e1415e1U, 0xbe5fa280bd159cf2U, 0x3d8fd3583d96905aU,
  0xbda664d63e9401d4U, 0x3ecc6957be13f040U, 0xbf0bc0c2bdc98f37U, 0xbea31b37bd33a00aU,
  0xbd1155ddbe52271bU, 0xbdeea2f53e5e1404U, 0x3e82f2bd3e32f46fU, 0xbe2c0ede3e51bff0U,
  0xbe6787743d3c9914U, 0x3e3c1ee03dec1ac6U, 0xbf9c16b33cfbea9aU, 0x3e54897fbe66b63cU,
  0xbe9dd2753cdefb4eU, 0x3e9d9bb63c8b1e8dU, 0xbeb60672bddcb80cU, 0xbc36e437becda6b3U,
  0xbda86e36be1932afU, 0x3e89135c3e0dc08bU, 0x3e4c715f3dcb4a56U, 0x3e0d328f3da8f6ecU,
  0xbe3379b1bd19cba4U, 0x3e9ac290be358744U, 0x3eeaac113e2b1f41U, 0xbec580ac3d50c8eeU,
  0xbe820cc9bee7f9b1U, 0xbf164a133d3f88f8U, 0x3ec44365be4b5a92U, 0xbdb50014be28dd75U,
  0xbdc6bfd23f07437dU, 0xbe839f6a3e4e173aU, 0x3e83020bbd195951U, 0xbe97dfa33eaf429aU,
  0x3e955a03bd90ba43U, 0x3ec10fc6be4ed3beU, 0xbe0d0f39be757dedU, 0xbdcf64b5beb47f17U,
  0x3e8e871a3e0a834cU, 0xbec537f63bf0703eU, 0xbf0c649dbe14f1f8U, 0xbe205ab2be21c7daU,
  0xbd35f4db3e93a0acU, 0x3d90e967bcc6623bU, 0xbeb337353eda249fU, 0x3e20a8153b6bf073U,
  0x3e7f65cb3eb792b6U, 0xbd61d4d03dad62f0U, 0xbbd59847be371016U, 0x3cb4f21ebefecd09U,
  0x3e108e26bea279c4U, 0xbe69b9e73df268d1U, 0xbe1d3639be0daa48U, 0x3e9d4e3cbdc92aeeU,
  0xbef659f5be15dd7dU, 0xbe9db2813d079765U, 0xbdb34a1ebdaf6bbbU, 0xbe3aa0b3be1d8e7bU,
  0xbe2dc06dbd859d2eU, 0x3e444e033daa69b5U, 0x3ca13b6b3cd29f49U, 0xbe6a6d24bf02df08U,
  0xbbc1291abec44153U, 0xbc5ee0eebed4e713U, 0x3f2513103ccc4279U, 0x3eed2b22bdb249faU,
  0x3d437dbb3dc70a25U, 0xbdcc2f45bd90782dU, 0x3e307bb7be882c1fU, 0x3e94934c3eaec4d7U,
  0xbe0f6c193da6025eU, 0x3e4811833eb17fb0U, 0x3e666ea63dfea685U, 0x3e1e971dbd9d6791U,
  0x3c4c7c753d326188U, 0xbd20fa953bd4403aU, 0x3e97cfdfbce1ddd5U, 0xbe45d4c43e2ca009U,
  0xbe8fe9713c26f1d8U, 0x3e5d8ea63e077c57U, 0xbe2e583f3ea824b3U, 0x3deb6c44be26a55bU,
  0xbeabc0b83e351e7bU, 0x3eb0065f3d0e6f3cU, 0xbe0789d13e9c2b5bU, 0xbc8e7322be3c00edU,
  0x3df82e513e8ba3c2U, 0xbde420983ee36627U, 0x3db3376a3d677bd7U, 0x3c2777e03ddb7a72U,
  0xbbafc6a9be6114ddU, 0x3d9ffaed3e396809U, 0xbb810ba0bdc66980U, 0x3caf987cbd7d7416U,
  0x3e402b803df3c589U, 0x3ea80a963e37f2daU, 0xbd17a9e8bec01887U, 0x3e76d2fa3e264032U,
  0xbdeb7ae93e5a7025U, 0x3dda02f43b3d0b29U, 0x3e376c17bddba0c6U, 0xbe9e790a3eaf3424U,
  0x3e0a67c03d22cd63U, 0xbd90951dbe1f01dbU, 0xbd99c9a73d8d360dU, 0xbc7682263ded188dU,
  0x3ce1079e3eac8150U, 0xbe15fac73eae8522U, 0xbe537a3fbe2695f5U, 0x3e6a7b92bd4a1602U,
  0xbef71bb7bd6f8555U, 0x3e0875c23e33c71dU, 0x3f026a87bcf246ecU, 0xbe349ce7bd8c757aU,
  0x3dbc8ee5bd71e636U, 0x3e21f4883e0027d8U, 0x3c71f99fbdb292a6U, 0x3d91ff463d3fb067U,
  0x3cade608bcaf82faU, 0x3e9ae4b4be4994aeU, 0xbe80a2debd987759U, 0xbd80daa1bdaca58aU,
  0xbf63ea413e7871abU, 0x3d847012be9ea93cU, 0xbe771d56bd7b26c0U, 0xbe5eb5c3bd9bdf0cU,
  0x3eddd711bc9c8712U, 0xbf3589803ea7c016U, 0xbed410173c9c4ce5U, 0x3e18def9bd03b68eU,
  0x3d1354f43e84e563U, 0xbe234de23e050767U, 0x3e039844be162305U, 0xbed21200bc9f449bU,
  0xbe23b9193f5622cfU, 0x3e1c2f30bd5bb59bU, 0x3e21a6e8be194cceU, 0x3e645edd3e1bcd03U,
  0x3cfc9e7fbd97bc59U, 0xbaeff794be6ba461U, 0x3e68ecd9be076f73U, 0xbe28a5693e156ac9U,
  0xbd88f962bf16c1ddU, 0xbea5510dbe8168bcU, 0xbecd4969bf5743a6U, 0x3ea1ec8cbe4882deU,
  0x3d3be8cdbeab4ac1U, 0x3d9ca3993f135c5dU, 0x3e345522bd485ef5U, 0xbc0e0c013e3a942cU,
  0xbe8cb4023e9fe6bdU, 0x3de77a333e0ef984U, 0xbf05df943e1c643dU, 0x3e26509a3ed26860U,
  0xbcc96a1f3ead85b6U, 0xbe98ccf3be08f093U, 0x3e019b8b3eca66acU, 0x3e3635bd3d2f4e37U,
  0xbb632b4a3e92f457U, 0xbe9b85263e74a731U, 0xbd1df5c43d0fc868U, 0x3e8271ccbd71dd3dU,
  0x3e752893bdfe427dU, 0xbde871ed3e9bf218U, 0xbe8f15f4bb9a7515U, 0x3e39e34a3e9e78f2U,
  0x3f0b0713bf334d47U, 0xbdce8207bde2cfd4U, 0x3f0fddccbf0aa84fU, 0xbe9f8698bd788b51U,
  0xbec650823dd4e1bdU, 0x3ee0ea05babbc620U, 0xbdd079e63e89f812U, 0x3e8431d4be667c3aU,
  0xbe0809843d9d31b0U, 0xb750ae60befd52e2U, 0xbe321fdbbd8b5d28U, 0xbee9b8c9be9fa82aU,
  0xbdb1352c3d26a166U, 0xbf2131243ea06b02U, 0x3eb1348d3c6a399fU, 0xbea5dad1bc85f181U,
  0xbe3fe6883f04d2baU, 0xbe93c8533c403155U, 0xbeb780593e8556daU, 0x3ea90b1dbe8bb20cU,
  0x3ed070a73e83d585U, 0xbcc19358be8a5b22U, 0x3dc3474e3d89b3c8U, 0xbeaafafd3d2d1b3eU,
  0xbeddcf163e891f16U, 0xbdfc2d13be288bc5U, 0x3e29185dbe296fdaU, 0xbe2f74c33ee6aa47U,
  0x3e956a213e965817U, 0x3beae0fa3e27a94dU, 0x3e09c7e43e246cdfU, 0xbd1ef9f53c8010efU,
  0x3c1fd795bdfdfc09U, 0xbe8aa7173debc3c6U, 0x3d0a8267be164f75U, 0x3cfdc869be4614eeU,
  0xbea1a14a3ca69e6aU, 0x3dcae9183e0df3f1U, 0xbe99607abe2924b6U, 0xbeb746aa3eaa8723U,
  0x3e13cb663dc72b32U, 0xbecfebfd3dc70c38U, 0xbd2780f53e47af72U, 0xbcfa5f3abe41c1fcU,
  0xbb4969903d9b84eeU, 0x3d87c2573ed41f7dU, 0x3e22d1e2bd089ff7U, 0x3e8dc8b5bd95d26eU,
  0x3d67b18abe500ba4U, 0xbdd88b52bedd83c0U, 0xbf2bfababc9f2a6dU, 0x3e483411be9e8efcU,
  0x3e0d7319bdbc02e8U, 0xbec2f401be4731cdU, 0x3ebbbfc8be8fd340U, 0x3d255e10be79e8e8U,
  0x3e8e3e393e6ef4faU, 0x3c836b0c3e3e7c1fU, 0xbe5e56693e475541U, 0xbea4e4403e60238aU,
  0x3ec0b59abd7eec8aU, 0xbe17c8883e0f9b79U, 0x3e0c56e83d97600dU, 0xbde3672cbedfbbc0U,
  0x3e191aa9bf2eb09dU, 0xbeb505313ebb4ee8U, 0x3e6a12b33e03b986U, 0xbeda229b3df11ed7U,
  0xbe14e9fe3d7a4797U, 0x3de1728fbe788280U, 0x3d60e858be34252aU, 0x3db879abbdd59409U,
  0x3d67f50d3e7a0132U, 0x3e240eb4bcf9bb31U, 0x3ef210b93c278bbeU, 0x3dcae2a3be6ac91cU,
  0xbe62506f3d2939a0U, 0x3d25e5493d4ad124U, 0xbd64814cbe48850fU, 0x3dddd3513e642417U,
  0xbf11819f3df528a4U, 0xbd0929f63d8feea6U, 0x3e0ff3323e6a38b8U, 0x3e2a2bc43d0d3428U,
  0xbdae65e4bdc78491U, 0x3e9b50f63e730900U, 0x3e73f238bebaf427U, 0xbb69ae49bdfe92e5U,
  0xbda542ffbf2aea4cU, 0x3df037e23d735db6U, 0x3d9f40dfbdcfc31bU, 0x3e8326d43e225d38U,
  0x3dffc31d3e83c8e2U, 0xbea8bc5dbd23067aU, 0x3dbcc89ebe918272U, 0x3cd41bb9bdf1b66bU,
  0xbed5080d3e2fbbc9U, 0x3e8194c93daf31a0U, 0x3ec9d4f63b86af03U, 0xbf12d81a3d36f97fU,
  0xbe1677e83e01e622U, 0x3e9b62943b38d3bfU, 0x3d899ab8bde3f0efU, 0x3e8963acbdce25a1U,
  0x3e7874ac3dc6f14eU, 0xbd4bcba83d0ab3e9U, 0xbea1f5d6bd4e0da2U, 0xbe5b49293d51d99bU,
  0xbdd82306be605152U, 0xbe1b6617be7ed815U, 0x3dbdf2fc3d94086cU, 0x3dd0135b3e22f538U,
  0xbea1fe24bc0793b5U, 0x3e70f80fbf0d0718U, 0xbf0e7ca53e347252U, 0x3d5ff5d33e9489b3U,
  0xbd6487e73e9570b4U, 0x3ea3a3e13e062a19U, 0x3ea452383a73f15cU, 0xbe5874aebe575d8fU,
  0x3e4ce2363e2ab75fU, 0xbef0d9a3be213834U, 0xbe6dfd0ebd11f072U, 0xbe189b0a3cd8bbd3U,
  0xbce0cf963e808af7U, 0x3e5a5ace3da40e68U, 0xbe8e651f3e77f45dU, 0xbcbe7ec33e2d72a0U,
  0x3e5c4797bec093efU, 0xbe62fbcbbc81d8efU, 0xbbb531933e06bbedU, 0x3dd2c560be957903U,
  0xbea5fe2dbe6028efU, 0xbe6594b83eab51ecU, 0x3e4e79863dfc0ad7U, 0x3d56060bbeeae10eU,
  0x3ceb1f12bed16b00U, 0xbe96942b3da028beU, 0xbc88125f3ea374dcU, 0xbebfb894bd79f7ebU,
  0xbcece2f2bf0b0703U, 0xbe3680dcbecbee26U, 0xbeabd2eb3e192e73U, 0x3e8c2f6d3e07d7c6U,
  0xbe03488b3ccf216bU, 0x3e8893f2be83145aU, 0x3e2e0bcdbcee83eaU, 0x3d91b0c7bc85cbe8U,
  0xbe943e7d3e0eeb77U, 0xba35e4693d133c2dU, 0x3eab5a5f3f1627e1U, 0x3d7c2531becadf78U,
  0xbe577b103e43d361U, 0xbc10bc94be9e7ad6U, 0x3d26497b3ef58c52U, 0x3e6638b7bd41946bU,
  0xbe4e1be8be513d9aU, 0x3d098d97bd4f08d4U, 0xbdd162e1be89a78aU, 0x3e3b91153e8bf0acU,
  0x3e2effaa3c9dae0aU, 0x3e4a5ce33e26c325U, 0xbdc29623bdfac98dU, 0x3e5bed37bf24f44bU,
  0xbe8a58813e865080U, 0x3ede911dba3de611U, 0x3eb18300bea2f951U, 0x3cf03d59be1f5226U,
  0xbe9ba3d6be4c9a70U, 0x3e004abd3a42feecU, 0xbee727d33e1328edU, 0x3e279fbd3dcfc15eU,
  0x3d21f9b9be8deedaU, 0xbe7444173ea969cdU, 0x3ca6ecdf3da10b68U, 0xbd6b26f43bcbb315U,
  0x3ebe2b663e9e81a4U, 0x3e7451263ef0d9b1U, 0x3db721a13e2b4f6dU, 0xbe18ba9ebea3b875U,
  0x3e3f27833e0dbc5eU, 0x3d8485df3e3f8df0U, 0xbe9bfa9abe4b10d2U, 0x3e1cc59c3e4ae412U,
  0x3e59226b3ce3dc2bU, 0xbda6e1933d83d9faU, 0x3eaabdc43e44bfe8U, 0x3df2ec34be6a84b9U,
  0xbea8e9043eb0b236U, 0xbc5c4c603e105af3U, 0xbde668353d47bc10U, 0x3d8d6561bed33759U,
  0x3e401f8c3db7a678U, 0x3cd7a690bddf8325U, 0xbe0f2cd2be53465eU, 0x3e815c303d53fda9U,
  0xbe5d2f0bbd135593U, 0x3c368449beb4ef45U, 0x3f15be08bf15d4b4U, 0xbef8f1f83dbb3372U,
  0xbe666d1dbc176baaU, 0x3e88dbc83e1c151cU, 0x3cb865b43f059231U, 0xbdb226fd3ea9d323U,
  0x3d47df273e4b7212U, 0xbd9bfb3b3d89c905U, 0xbd435a05bddbd127U, 0x3d37ffde3d95eef7U,
  0x3ed5e6f83e4d04eaU, 0xbe4566b93e812abcU, 0xbc3dfb0d3e5a3045U, 0xbd228232b9e58542U,
  0xbe29c3bdbf1a0264U, 0xbe26f9f73b2f4a41U, 0x3e128b08be7989ecU, 0xbf0f5bbe3dbc147bU,
  0x3d382213be107769U, 0x3f04b72cbc9c8260U, 0xbc405e7dbda0b769U, 0x3eb7fd083caca30eU,
  0xbd046f1fbd94147fU, 0xbe8661253eaaaf85U, 0x3e4632c13e1c2772U, 0xbe599b81bf15cd88U,
  0xbe80e04b3cb0fb4aU, 0x3dadca713e7cd5c7U, 0xbe86e2c43ecfadb0U, 0xbd053ee1bd1a4bdaU,
  0xbeb89825bd820528U, 0xbd8be0d83e0d4d49U, 0xbec1ac233e4d0798U, 0x3e0afbd9bbf93c66U,
  0xbe9ccccdbea3bd7bU, 0x3e870799bdaa5750U, 0x3de8da88bc6355bdU, 0xbe4c23ccbdd64771U,
  0x3cb259513e575214U, 0x3e9506e63dcf2982U, 0x3e8bb0253e2e38e4U, 0xbe5b6f823d736ee9U,
  0xbe527c613e6bbde7U, 0x3e9227c33e4264bbU, 0xbdbfdf093dd4d50aU, 0x3e3cc32fbef0cc53U,
  0xbdf277c5be8cbfd3U, 0xbc5e6a49bded689aU, 0x3eb58ad6be566cc0U, 0xbe3323ca3e686ca2U,
  0xbe17f2d1bea51fd5U, 0x3ec71b953e42c68eU, 0x3ed15d61bd1f8c4cU, 0x3c89d6a63e2c901aU,
  0x3e266ed93cc7fcffU, 0xbe9cccb13e8a1123U, 0xbe23ce8b3caf7f4eU, 0xbedc3474bf053d04U,
  0x3e46a4e83bb1356eU, 0x3ddfee0e3e8e994fU, 0xbdff9655be96f554U, 0xbe8b8dd73e0cab49U,
  0xbe1bc0523e7861a5U, 0x3e26ca1cbdca4eedU, 0x3eb256d1bdea713aU, 0x3b7ee0733e424afaU,
  0xbeb3546d3ea1081fU, 0xbe06f313bca83412U, 0x3e948a923c52c8d4U, 0xbe86327ebd23fea7U,
  0x3e88b4eabe9b91cdU, 0xbe542a213ee7567fU, 0xbe95b611be9481e5U, 0xbe7a1f3fbe0a272aU,
  0x3ea9b13f3dd50a97U, 0xbe4cb3ee3ef5f39fU, 0x3b1b065a3e2f6395U, 0xbe8a6118bd5f67daU,
  0x3f06e5423c57a0adU, 0xbede1a15bdb03914U, 0x3e4ca5903eee331dU, 0xbd50fcef3e795bd3U,
  0xbdff000abe04e235U, 0x3f114857be9b4bf2U, 0xbda5be253dc432f2U, 0xbe22d4debda88372U,
  0x3e48f382be7d382cU, 0x3e9bcf3a3ed9fd6eU, 0xbe2fc44b3ccd12a5U, 0x3e089bbdbe924cb5U,
  0x3d5c8c7cbf0600ccU, 0x3e940c75bece34d1U, 0x3e30d68f3e1d6816U, 0x3cfafddebdc9d8eeU,
  0xbe0abb2e3ea8edc5U, 0xbd376b8bbe977d66U, 0x3d885a8dbe012a0cU, 0x3cf1baa43e6457a8U,
  0x3d8f41d33e840705U, 0x3e4cacc63cdf47edU, 0x3dbd08703d57244aU, 0x3dd0de02be3f90c9U,
  0xbe254949bd088c5bU, 0x3e202b633e3e0a55U, 0x3dfc4e84bedc2d1fU, 0x3d8caf39be01f9d4U,
  0xbec932383e4cb281U, 0x3d52155b3c266a5bU, 0x3c9db4e43e26c56aU, 0x3de91e1b3d6e07e9U,
  0xbd11b157bdb6f4d8U, 0x3dfbfeae3e04c597U, 0x3d8017003e68decfU, 0x3dd99a923d9b35d0U,
  0x3ea9cd24bf25e718U, 0x3d8addc73e619d1cU, 0xbbe4975b3e0f3b0cU, 0xbddd10e73d35473aU,
  0xbd0ecc843eb6ee68U, 0x3de814c63e3b7cecU, 0xbcd290ff3d917b50U, 0x3d769da23d19aab8U,
  0x3e50b7e63ec78d83U, 0xbeaa691a3e0d636fU, 0x3e802c4a3e838bd5U, 0x3e723f893d911f54U,
  0x3e6f3f8abcf6b83cU, 0xbd5dad32be87e8f6U, 0xbdeedfca3db53f33U, 0xbe900c1b3e60c553U,
  0xbe730169bde0cd50U, 0x3e8eb3a83e2466b9U, 0xbdbce144bed1fc56U, 0xbdf1c5723e21827fU,
  0x3ecd75eb3e1e16cfU, 0xbd9a1d3a3e149ab7U, 0xbe395c7e3e3fc911U, 0x3deb047a3ea2981aU,
  0x3ec5f9743e932a69U, 0x3d012d553ecedc30U, 0xbf0b977f3eb11b56U, 0x3e1bae833e522940U,
  0x3ed535473dab64c0U, 0x3cb9b0e1bd950179U, 0x3eb933da3d8a3514U, 0xbd317a683ec4c33fU,
  0xbe8604613e83430cU, 0xbaf1cebebe939a6eU, 0xbc22d7fc3e01f0d6U, 0xbda9c1cebe2e0ad8U,
  0xbc13d5653ddb723fU, 0xbdb5ba2c3e9e8dfaU, 0xbd6d4db53db3b589U, 0xbdac3b593e054d94U,
  0x3d86ad443e5d06c5U, 0x3e8fbbed3e03f788U, 0x3da566c8bf009989U, 0xbee89f69bb4c34d3U,
  0x3dce1a013e941965U, 0x3d8be8ebbe26ccd8U, 0xbe45d1163dbcacd3U, 0x3d5120513ce0e603U,
  0xbe1a3897bea130fcU, 0xbe8be6e93c4c6b0dU, 0xbe9f82463e1ed885U, 0xbc00eb66bd8199d1U,
  0x3e3eb96dbc670187U, 0xbe40b20dbf22abc2U, 0xbc914d30bd5f64a8U, 0x3ee81cb4bdb3cb20U,
  0x3d0825d83d3b15b9U, 0x3ead8be9be71156aU, 0x3e85b03e3ea3eba2U, 0x3edfc8833b3a44abU,
  0xbe21a7153edba45cU, 0xbdf87899be8667dcU, 0x3e8381ae3edc99f7U, 0xbea5c1eebe953be4U,
  0xbedb2a6e3d8e2183U, 0x3e246d20bd8ca74fU, 0x3ed79c683e5b3ed9U, 0xbcf2d310bdfefb8dU,
  0x3dae5c37be2c62f2U, 0xbe164a87bee50f36U, 0x3da67790bd3c6319U, 0x3c52502dbd5a1ecdU,
  0xbe3c29df3e025e29U, 0x3ea68ce63e9d22f1U, 0x3e0fba28bdce2a28U, 0x3e21698b3e25e230U,
  0xbe89c2993d23b812U, 0x3e55becdbe215baaU, 0x3cf1437dbd9b6a27U, 0x3e89f6d43e864392U,
  0xbe158efe3ddb7faaU, 0x3e6ed248be97de9dU, 0xbf07a64ebe851a19U, 0xbe6ffb3a3e0e32e8U,
  0x3e60b8e3bda80321U, 0x3e479924be89f146U, 0x3e807a8dbe9371f4U, 0x3e6a92a93ea4f1c3U,
  0xbc47f1c7be0b1ab3U, 0x3e6e890fbe99d06bU, 0x3d0b3d5c3e1894eaU, 0xbd01b5343dc42c99U,
  0x3e5f9f2f3dca935cU, 0xbd63baf23db33e02U, 0x3dfb1f6fbeb89f33U, 0xbe3835a33f239188U,
  0xbe53f9643eac9b14U, 0xbe7c14e7beca1492U, 0xbe8305c9be596eb6U, 0xbeec46793d7cad86U,
  0xbdf972043cde27b9U, 0x3e382cfb3df5928eU, 0x3df69fc23bae3ad4U, 0x3e0b4a6e3d5f8331U,
  0x3e9c88f0bf2cef21U, 0x3e2529373e0e2b41U, 0x3df12fba3e0f2959U, 0xbf0b944bbda6ac21U,
  0x3da34251be0d433fU, 0x3f272c33bddf3c9fU, 0x3e217f4f3bb49a97U, 0xbe4c39a23d50168eU,
  0xbda2119b3d2337cdU, 0xbe7ac0f6bde95b7aU, 0x3c1ca2a0bd44c8baU, 0x3e1d5b79bedbc7deU,
  0xbdddd65bbe436437U, 0x3d8aeb323c229c03U, 0xbe58b90b3e35311aU, 0xbd6e2fbcbd208b6eU,
  0xbd1d21f73e134e24U, 0x3e82f3d53e691359U, 0x3e577ccdbe02e286U, 0x3ea103803d7b476eU,
  0xbe5b8891bd5dc92cU, 0x3c6695073ee04ee1U, 0xbd0633603dbda8b4U, 0x3e3d2ca9be0a19d0U,
  0x3e1bdd84bebe9214U, 0x3d8730d2bdd6ddacU, 0xbe3245eb3e8edb0eU, 0xbe3cd10abdfa1eb6U,
  0x3c12c22c3e9f825eU, 0x3e36b5633f16e315U, 0x3e2c8b223d551089U, 0xbac43e06be4fba58U,
  0xbdf026cd3e7bebceU, 0x3e45c30e3e992d60U, 0x3e6c6790be1119ecU, 0x3e3bd0a83c58c89eU,
  0xbde9fcf6bcf323abU, 0xbe233bd3bb2e224cU, 0xbc8d0b70be99728aU, 0xbd38abf9be9b696eU,
  0x3ddbde1e3dfd88c7U, 0xbea0c3a3be81c79dU, 0x3ba8a85d3e838b34U, 0xbd4c0237be250d63U,
  0x3ef9d78d3ca4a5bbU, 0xbd128fd9beaa94a5U, 0xbe1095503d2f47bdU, 0xbdd336463dd20003U,
  0x3e73845b3e758b4bU, 0x3eec8c93bdcabf8fU, 0xbdd3109abeb46f8eU, 0xbdde4740bc79bfecU,
  0x3ccea9dcbcd2801bU, 0x3df9f8853e1a0413U, 0x3e5988c53eb14d4fU, 0x3d8a7a96bd08099bU,
  0x3e4f66b33e3a0d0eU, 0xbeff7e1e3e4f9b7cU, 0x3cdab4533eae0295U, 0xbeb5b9513e13c2f0U,
  0x3e03859bbe0a1b50U, 0xbb578e59bdf95e78U, 0x3c7e61873e52a00aU, 0x3e3fbb263c2ae4a5U,
  0x3eeaaeb0be10b5fcU, 0xbe4cbd9cbdaf43f6U, 0x3da7758cbe940261U, 0xbc8299de3e342eccU,
  0x3e3758eebde4bd2bU, 0xbcfe569b3e2cd392U, 0x3dd545c33c83192bU, 0x3e81f5eebe537ad8U,
  0xbdef46ac3df3617dU, 0x3ed0f1233e73893eU, 0x3ef03b73be7efacdU, 0x3e21c3fb3e65aaa5U,
  0x3d3244833eb38f6bU, 0xbd7b9809bd4576dfU, 0x3d8b3960be0a258aU, 0xbe2ba879be33b25dU,
  0x3d40c5f43e3dada2U, 0x3dce80c93f1ac8d1U, 0xbe867e2ebd18f3e8U, 0xbe929f333db2d61aU,
  0x3eebc09b3da8fa3eU, 0xbe0674c03e824890U, 0x3d62c282be141155U, 0xbeb0eb2a3e956e00U,
  0xbe5ba8ec3e5718b0U, 0x3ea36e76bdf30fddU, 0xbeaa245ebeb821adU, 0xbe2a48fabe12ba0aU,
  0xbe539e883cd7c3daU, 0x3e4d87c2bd221f8eU, 0x3ec44c53bd93910dU, 0xbec264e6bc50cd19U,
  0xbe154271be180218U, 0x3d4d8129be391464U, 0x3e6f9c773e347eabU, 0xbe2f50c33dc6df48U,
  0x3da3bdf93eb480c3U, 0xbf66fad03e7f5570U, 0xbe7e79aebc2cc0caU, 0x3e4760e73f1b4ea5U,
  0x3cd9a2e73ba471ecU, 0x3d5e0cfcbea3c78cU, 0xbdd1e2df3b6e5d9aU, 0xbdbe85c1be3b567dU,
  0x3e69d2d23da4cc6fU, 0x3ed42c18bf840645U, 0x3dcd4d1d3d26ff5bU, 0xbe19f5613e128ca3U,
  0x3d926aeabce59b64U, 0x3c9439d3be7136a2U, 0xbd71eab53ea91da1U, 0x3e1d766abcf6ea90U,
  0xbbaf7c64bd4b72d6U, 0x3ae212bfbe2f2a6fU, 0xbdca7108bee25217U, 0x3cd5d0833d96e736U,
  0xbe752bacbe1f3832U, 0xbea435d0beca41afU, 0xbe646371bf09cde2U, 0xbd70828bbe89bcabU,
  0xbe7d1ee43e1c3ed0U, 0x3dc129aebec27759U, 0xbf622ecabe8cf229U, 0xbec5ff603e91770aU,
  0xbc0b736ebe4fb89aU, 0xbec100c2bf3e5eb2U, 0xbda01ef33e60a096U, 0xbed35453bc7ac263U,
  0xbd1eb916bd865fefU, 0x3ecf675cbc79ed95U, 0x3e1f20f5bcb3c958U, 0xbd10b6af3e9bc4c1U,
  0xbe8b1e4b3dbf1b6aU, 0x3e5461543e23067fU, 0x3d8c4c8ebdd46621U, 0x3cc8be2a3e837bffU,
  0x3edcade43cf907ffU, 0x3e89d6473eb80626U, 0x3e1d7de3bebc4619U, 0xbe9defe83e35c2baU,
  0x3d976c2f3dbb93aaU, 0x3d33e5f0be7caef7U, 0xbef88a77bc1435cbU, 0x3eb7c36a3d7970e9U,
  0x3eb09a0ebe5b4e3dU, 0x3f146fc23e30d1f3U, 0xbf092c10bea5f9eeU, 0xbea44649be04ba3fU,
  0xbd9406e1bde9ba5fU, 0x3ec38dab3e4b8cbbU, 0x3c5c187abf2d9127U, 0xbdacd8ff3d96ec1dU,
  0xbe2708e9bdb2b1edU, 0x3ea470f3be26f7d9U, 0x3ea53fa33e38d4e7U, 0x3dc256af3d04892aU,
  0xbeb0539a3ed40029U, 0xbd3472d4bdce226eU, 0xbd2e20ef3e9826f3U, 0x3ee71082bc5dc5a4U,
  0x3cb8c5e63e623064U, 0x3d9466223c990720U, 0xbe46adac3e27dd79U, 0xbd6a179ebb92c7fbU,
  0x3b569b0d3ed26db0U, 0xbb4265323e5ce127U, 0x3dcdf0753d4fb2c1U, 0x3e0ef1fc3d024c2fU,
  0x3ec77f203e369ab0U, 0xbd2c7e71bd944b9dU, 0x3a7a76a6bccce1e9U, 0x3d50aa03be1c2e4bU,
  0x3d8c1b373e3aaabaU, 0x3ce423303ebd95c4U, 0x3c4c9d423e27454dU, 0x3d41dde53e3dcceaU,
  0x3dc7fd06bdb92086U, 0x3f1f732d3eb7ccb1U, 0x3e0d4a47beecc064U, 0x3e97b6d23dbaa9f7U,
  0xbe264f983e79726dU, 0x3edd27f1beb570f1U, 0x3ec41cbbbe995d5fU, 0x3f1241eb3e873a3bU,
  0xbdf2c6353e0f4e66U, 0x3db4d6c2bf247ff4U, 0xbd903f303e2f2ab4U, 0x3e967c30be7fb800U,
  0xbe6788fabd287619U, 0x3ed86f0abeb58008U, 0xbf04b3f63e51cee8U, 0xbdf3aa32bece49cdU,
  0xbeab57e83ef0bb00U, 0x3e7a42ef3e8fd153U, 0xbe76b6853e6ff672U, 0x3e51df2abf66489cU,
  0x3f61b1d43cd696adU, 0x3e96d5c4bedfa51bU, 0x3e80c2c2bef7c312U, 0xbee5fd423f1df3e2U,
  0x3de4a1013f12d9feU, 0x3f1bd92fbf10e754U, 0xbd8f351f3b511225U, 0x3e9418be3df9a00aU,
  0xbe53ee66be66d197U, 0x3e827629bea77789U, 0x3ecfdd2bbe0f45e3U, 0x3edc87733ebb475aU,
  0x3edc8857be91c18fU, 0xbe229531bdcf07ceU, 0xbe3b3f6abf0df2aaU, 0x3e9cd1233df31322U,
  0xbd7470b93f7676e0U, 0x3d7d3d623e0e339eU, 0x3dd5518fbcce0082U, 0x3e7644d03eb7c498U,
  0xbe80038a3f17f586U, 0xbe2fb27dbd106af7U, 0x3e3a7f36bf04829bU, 0x3e56bbda3e515834U,
  0x3ebbd8033eba0195U, 0xbca244983e613b95U, 0x3ea688c5be45351eU, 0x3ed85235bef6605bU,
  0xbee1aae1bec98d14U, 0x3f0650d63eda6e91U, 0xbf0708f03e6f59bcU, 0x3e6b5474bf0a5d7bU,
  0x3ed1331e3e53d432U, 0x3eb9b09f3e5f49cbU, 0xbec4e17fbb825142U, 0x3c9048ac3ecd1ce8U,
  0x3e95ed463e52dfa5U, 0x3eceea43bd99e49bU, 0x3e900c013ebdb527U, 0x3ed47a373c61efe7U,
  0xbb6b9478bd79a17eU, 0xbe00909c3e5cf96dU, 0xbe20d4c03e100e57U, 0xbd81689cbf4f2209U,
  0xbf433898bed9c152U, 0x3d40189bbeaf7a1bU, 0x3aad68323e1e0c87U, 0xbf000ce1beab07ddU,
  0x3f43a0abbe66293aU, 0x3e9576cabf657b02U, 0x3f1bac6cbec36704U, 0xbe1e129cbe9ab490U,
  0xbf00d0e9bed272f0U, 0x3ed276103de5f6b0U, 0x3e2ad9763e195daeU, 0xbde760663e1c8637U,
  0x3d18a5553eb44f38U, 0x3e681f7fbdd4ea06U, 0x3e8b74303d82df1cU, 0xbeab2835bf7231dbU,
  0x3bd10a193f145edaU, 0x3f2184babe8b52e5U, 0xbe6ab9d33e94342eU, 0x3cf4218dbec57a62U,
  0x3f2e64f63e2c301bU, 0xbd73d0bfbeb7fe78U, 0xbdbcd1aabee7af9eU, 0x3e5895633d88665fU,
  0x3e212c3abcdd985bU, 0xbe9acb343eba6b8dU, 0xbe5690253d50f47eU, 0x3e88a2fabe146f77U,
  0xbe0f7758be9ede25U, 0x3b8530f13ead1047U, 0x3e85b3c9beb0150bU, 0x3ee203ec3eff7810U,
  0x3e99ffd9bea5f134U, 0x3ef3970fbf416c02U, 0xbefe8801be00301dU, 0xbd85a02d3eb9a24aU,
  0x3f7f74143f5500f3U, 0x3f07edc8be59aef8U, 0xbe88f5763ecabd2bU, 0xbe2db937beb5da4eU,
  0x3ea18ce03e141b94U, 0xbf11535dbe7591eeU, 0x3e43ccbcbf199d15U, 0x3e21ee5c3f6eb7a8U,
  0xbefcccb93e04b6f5U, 0xbe08cbaa3e70adefU, 0x3e9e76d03f023a10U, 0xbe92a7b8bd782a5fU,
  0x3d442bcfbe365680U, 0x3e4992823e10e582U, 0xbea0be3ebe4c39e9U, 0x3d133f46be6216a2U,
  0xbeb27743bea9b474U, 0xbdb2a918be1b01c7U, 0xbe3a7272be8741caU, 0x3e25f20fbeacde50U,
  0xbea21a93bdfc55a6U, 0x3e0e96c63b06f4b4U, 0x3dc56c113e05e330U, 0xbe9218dcbd11770eU,
  0xbe96d33fbe52b08fU, 0x3dbda64f3d2a35b0U, 0xbe9c4e17be5a3f35U, 0xbe850185be6ea09eU,
  0xbed3f294bde3c645U, 0x3ef0af193e2aa45aU, 0x3e308e79bedac9b1U, 0xbe7334323e7d94eaU,
  0xbddad2783ed88ba6U, 0xbe3413e2bd7dd01aU, 0x3ececbc13cf7f584U, 0x3d861f74bf97964cU,
  0x3ed11013be1f27a3U, 0xbf124a293eeb9cb4U, 0xbe8228473d9849aeU, 0x3e9943b1bebfb9bcU,
  0x3e80d4b5bcb52475U, 0x3e2ce8363eb94d7bU, 0xbe9ef614bd24313dU, 0xbeeb8ed4bf138f6dU,
  0x3e157f3dbede2b0fU, 0x3f16b02f3db6da0aU, 0xbec38bc53e539947U, 0xbefb32773e192c38U,
  0x3ef4dbf3bf177bbeU, 0xbe218f513db96f67U, 0x3ef191743e632e5bU, 0x3f0e3f153f109c71U,
  0xbe8d1b1c3e02fd80U, 0x3f2f302cbd1be9e1U, 0xbf1dce2dbe312469U, 0xbe59593e3f2601caU,
  0xbee1abf63cacef76U, 0xbe26fe51bca1247fU, 0x3d5ef6413d25a594U, 0x3dacebbd3e871667U,
  0x3e635b2cbe235d8fU, 0x3ee6097ebd2a2733U, 0x3e2fcd92be62838fU, 0x3eb1c3d0bf2a18ceU,
  0x3dc8a705bec2615bU, 0x3e652d323d8dc1a9U, 0xbe111dbbbe2c88dcU, 0x3e91ce6b3f2c7c6aU,
  0xbda6f66d3e8a0844U, 0xbda8f81f3f465875U, 0x3e6839393ea4963bU, 0xbe3eb69d3e64ca58U,
  0xbd00149cbe9e6e3dU, 0x3e44ef02bea682abU, 0x3e966646be2b1c83U, 0x3dd03fc53e715427U,
  0xbde795e43ea79591U, 0x3e1eded13e16805fU, 0xbec05696beb9d3b5U, 0x3d2ba516bea481a5U,
  0x3f06b1fcbf1bbf2cU, 0x3ea246613dc466fcU, 0x3c20e33abeac7681U, 0xbca94d513e93e8f1U,
  0x3e873c8dbe56234fU, 0x3e5958053e57a0e7U, 0x3e28df0b3f124bc0U, 0x3e933b513e8e4a68U,
  0x3eef79a23e9f148dU, 0x3e3d7da0be4ca01dU, 0xbe67bb7abe02ec77U, 0x3e91c6413f22de8bU,
  0xbdea1e5e3d840d3eU, 0x3af5d5e53d94af41U, 0xbec3f75b3ebca99bU, 0xbd51e860be27c4d5U,
  0xbee784d1bf0d5c67U, 0xbe80ce433eaa2341U, 0x3ecdcfa4bf046349U, 0x3dc1b894bca6ac0cU,
  0x3ef6adae3e2b4efeU, 0x3e6a6d003e21069fU, 0x3eb5efdcbeeb7f5cU, 0x3c8519c8befb453cU,
  0xbd6763053e846fb7U, 0x3f10a9e53f044881U, 0xbdbbfb9a3ee71ad1U, 0x3e811ebf3f33e991U,
  0x3e335d1cbdd7ac3dU, 0xbdc70e4fbf0292e1U, 0xbe0dab4bbe143616U, 0x3ebc6b153d8bf965U,
  0x3f0897523b524399U, 0xbe2482033e730dd8U, 0xbef40a903e364e8eU, 0xbf2a7d0b3de1a4bbU,
  0xbebe807fbd629b1cU, 0x3cc264443e38ccf1U, 0xbdc4022e3ea88350U, 0x3ea47ede3e896a1fU,
  0xbe65c68a3e0a29b8U, 0x3eb90bc0be9f70e7U, 0x3e625e2bbb00ca1aU, 0x3f261b103e8590d0U,
  0xbdc5b247be089340U, 0x3ea6dcaf3f14c2bdU, 0x3d99e5ee3d51e40dU, 0x3db9e8b4be9d278eU,
  0x3f1695153f43d4b8U, 0xbe5fd29bbe2d2aa3U, 0xbef762bd3d520290U, 0xbef323323e3003dcU,
  0xbe6bd0debefa9ae3U, 0x3ed32a50bf21bb61U, 0x3c825470bebebe66U, 0x3e9b701f3e1e166bU,
  0x3e87074abef05482U, 0x3ee220bc3e42ca8bU, 0xbed3c0e23de45698U, 0xbeff8e363ead12e5U,
  0x3ec148b83e5bbac7U, 0x3ea981163e7b9ee7U, 0x3e9add91bed47256U, 0xbe95b0dd3c172700U,
  0xbf07862fbcc19803U, 0xbebf7d36bef0f016U, 0x3d8cb783be877c42U, 0xbe1dcbe7bf1b2fb4U,
  0xbeab23d9beac44f5U, 0xbe2adc523e988c8aU, 0x3e7ff4993e7bdb66U, 0xbe22d0183e139546U,
  0x3f2ecd3d3ea07f69U, 0xbeeff88abd903283U, 0xbcec9f0d3f021a2dU, 0x3e8fd9f53e1c82e5U,
  0xbd53e44fbe0ed91dU, 0x3d83823e3d8fe32bU, 0x3d8cd799bccea209U, 0xbc0a1e183e62e484U,
  0x3cf32b293e58c49fU, 0x3d8ff447be19b51eU, 0x3cb2d9ba3e416f82U, 0x3e37691f3d8622b2U,
  0x3e1a902c3e647f25U, 0x3ed9313b3ee4eea7U, 0x3f1084cd3f2f9760U, 0x3d61e25dbed7e5abU,
  0xbf16d7d7bf156d90U, 0x3ee56c3d3e275ab3U, 0x3e312796bef49ba1U, 0xbf64fdf13fa01569U,
  0xbee9c0d03f1fecaaU, 0x3e8d1bde3e34c736U, 0x3e0e13793f4ef262U, 0x3e004c72bf489e19U,
  0xbe0435a1bdc7af9eU, 0x3e8319d7bf548ec6U, 0xbf89d533bea8aefeU, 0x3e19494a3f3f19e0U,
  0xbef5bfd8bea72674U, 0xbd7e074fbda286e8U, 0x3db6ac593e2f6652U, 0xbed7d9dbbf78efebU,
  0xbf195b7d3cd44713U, 0x3f213068bedf635eU, 0xbe7b00513f01a967U, 0xbdae03503e2fc164U,
  0xbf0c6e0abdc492f0U, 0xbe068b9ebedcabe9U, 0xbe06d9393f114207U, 0x3e12c49dbf732d79U,
  0xbedf0d7bbd2b5eafU, 0x3de53f7c3eb030c3U, 0xbe8438403f31315fU, 0x3e86104d3e182b41U,
  0x3bc2f3833e94ae6fU, 0xbf01eb6d3ec6c198U, 0xbe56ae99be66991cU, 0x3e2d7eb1bead57d8U,
  0xbf27567a3e641195U, 0x3d288898bea943afU, 0x3dc850cfbe0e8408U, 0x3e1d5f2e3db8f865U,
  0x3dd471bc3ea90c2bU, 0x3dd4ea283edd271cU, 0xbf1bd139be1dc0adU, 0xbcfa0269be7a0d95U,
  0xbeade8163e9d3eb1U, 0xbefc1c88bf32ebbeU, 0x3ed0a41bbe84732aU, 0x3e07a206be97a131U,
  0x3d16430abea686a7U, 0x3ec2bd25bf3e3da8U, 0x3da43048bf2f9651U, 0x3d72664ebebcb488U,
  0xbd2465ce3f275f36U, 0x3eb39343be81ce7fU, 0xbd402e06beccebb0U, 0x3e7dfc8cbf2e7d21U,
  0x3ed35e26bc9e4e18U, 0xbb983175be324667U, 0x3e5f687cbd100589U, 0x3ece25d9bf8275a9U,
  0x3f336226bd3ae40cU, 0x3f10559ebe87c919U, 0xbe9721ad3d54120fU, 0xbcac08f0be7e9294U,
  0x3e9c1e533e891695U, 0xbdc5060f3d829db6U, 0xbe65322cbe930fd5U, 0x3e7fa1c13e2429b1U,
  0xbe1d22293d55ced6U, 0xbe845086bda89c0eU, 0xbec45542be848ffcU, 0x3e80db3ebf44e855U,
  0xbf08effa3ed11379U, 0xbecff9813df1b75eU, 0xbdd8fc42bf7725edU, 0xbea71057bdfbc4fdU,
  0x3f12576dbd041986U, 0xbd1162333df7e15bU, 0x3ed9d0093e90011cU, 0xbf3e4717bf522a4fU,
  0xbec5eb11be5e7c29U, 0x3e4bd5513f2463d4U, 0x3d281dfdbf2e0005U, 0x3e39f6083cb474eaU,
  0x3a94e1febe2cc5f9U, 0xbefefc733ed06582U, 0x3db3e0a0bde62df0U, 0xbedb0497beac7f39U,
  0xbe9ec9b23e938568U, 0xbdb769c53e9256a2U, 0xbf2be3b1bf573093U, 0x3e73fe903e67ff4dU,
  0x3ee90500be52c5d3U, 0xbd3c20eabd00e708U, 0xbd8e72383e6e6083U, 0xbf3a67d0bf0de2c8U,
  0xbe2bbdf7bf0c05ecU, 0x3d84f8943e10b6f3U, 0xbf2563c33d1a65bbU, 0x3e0f50a73efc11d5U,
  0x3e92d743bed8294eU, 0xbe927a683e69b196U, 0x3ddf9ed23e591b11U, 0xbe5549003e526ce5U,
  0xbeb4a13ebedd7a6aU, 0xbd6c763d3f1f770dU, 0x3f34926dbe0e1f21U, 0xbd422db3bd9a5431U,
  0x3f231dcdbf159693U, 0xbe6ef4afbec455e3U, 0x3d767f76be95bca9U, 0x3e14de0ebf210b4bU,
  0x3aba033ebed5e598U, 0xbdc6a1ecbec51ffbU, 0x3f170dcb3d0d07efU, 0xbe90dc6b3eec6c70U,
  0xbe5de1e4bd1ca03dU, 0x3db56b2abc3efbc2U, 0xbf12379b3e677daeU, 0xbe24b226bf4a59afU,
  0x3ead90983e8736b1U, 0xbe873ba5bf2d9b83U, 0x3f0e7478be92b8cbU, 0xbe46d9a43d30352aU,
  0xbf29d93e3f41b626U, 0x3eaae841bdb1e3cdU, 0x3e95b245be4317d2U, 0xbf344b80be65ac19U,
  0xbecd3c93be7669acU, 0xbf0914e53e912527U, 0xbec4ffe63e99a72aU, 0xbe90d0f03eff75daU,
  0x3cd0f2acbf23f3a4U, 0x3e1ad1eabeafc6dfU, 0x3e7e7d9dbe8d352aU, 0xbe3ad91cbecde631U,
  0xbf0a9f443ef5cb12U, 0xbf6ff525bc2b18e4U, 0xbe21c9583ee9b1ddU, 0x3dff5a313eea2d44U,
  0x3f094da5bd27cb52U, 0x3e8998c5be995ea8U, 0x3e4a87d2bf057a59U, 0xbde3345ebf5714cdU,
  0x3e4fc91ebdd7d5e9U, 0x3e00bed23e68e777U, 0xbdc4c555bd379d6aU, 0xbe8c9b963f179456U,
  0x3e861fe33e048628U, 0xbe09d10d3e9f824dU, 0xbebdd6edbe051443U, 0xbea3605bbe76699aU,
  0xbe20669e3ddb083aU,
};


ai_handle g_network_1740727433501_weights_table[1 + 2] = {
  AI_HANDLE_PTR(AI_MAGIC_MARKER),
  AI_HANDLE_PTR(s_network_1740727433501_weights_array_u64),
  AI_HANDLE_PTR(AI_MAGIC_MARKER),
};

